#version: 0.2
t h
i n
a n
e r
th e</w>
r e
e n
o n
a r
e d</w>
t i
o r
o u
in g</w>
t o</w>
s t
o n</w>
e r</w>
i n</w>
o f</w>
i t
a l
an d</w>
a t
r o
e s</w>
e s
i c
a n</w>
i l
a t</w>
a s</w>
a c
o r</w>
i s
i s</w>
o m
e l
a s
a l</w>
e c
o l
u r
i d
a y</w>
a m
u n
l e
c h
a ti
r i
e n</w>
a d
en t</w>
h e</w>
w h
f or</w>
a i
u s
l i
v e</w>
l o
' s</w>
h a
a g
th at</w>
l y</w>
n e
d e
s i
t s</w>
d ay</w>
re s
e d
b e
g h
o p
v er
e m
p ro
w it
c on
a y
er s</w>
s e
a b
i r
wit h</w>
ou n
t r
l e</w>
n o
i t</w>
c om
th e
s h
s u
p o
w as</w>
f f
d i
c e</w>
ai d</w>
e x
s t</w>
a r</w>
a k
p l
t er
er e</w>
s aid</w>
T he</w>
in g
u l
f or
s .</w>
p e
t er</w>
b y</w>
l d</w>
h is</w>
ro m</w>
f rom</w>
r a
b u
e ar
o w
m o
t ed</w>
p or
o o
ar e</w>
# #
ati on
ou t</w>
en t
ati on</w>
at e</w>
b e</w>
s ,</w>
p er
t h</w>
an d
h as</w>
a p
a f
w e
c o
ti on</w>
h i
a in
q u
ha ve</w>
w or
s e</w>
g o
il l</w>
st r
ou ld</w>
u c
p ar
it y</w>
’ s</w>
m on
o c
h e
e t</w>
s p
p res
v i
as t</w>
m ent</w>
v er</w>
it s</w>
i m
th er</w>
# #</w>
ou r
e ,</w>
on e</w>
c l
es t</w>
w ill</w>
o ff
e t
f i
gh t</w>
m in
t e
no t</w>
ti on
al l</w>
t o
i r</w>
m or
en d
re c
k s</w>
p u
t u
a u
al l
wh o</w>
g r
e .</w>
i st
c h</w>
p ol
m an
ti m
f ir
u p</w>
s a
es day</w>
the ir</w>
ic e</w>
m il
bu t</w>
e v
b o
s ec
c i
t ing</w>
a d</w>
th is</w>
m ar
af ter</w>
u m
u d
e st
g e</w>
l a
ha d</w>
mor e</w>
w ere</w>
ou r</w>
il l
f in
y ear
t ur
n i
g i
t w
c oun
om e</w>
the y</w>
ic h</w>
h o
y ,</w>
re d</w>
ne w</w>
s o</w>
p r
2 0
ar y</w>
f r
d is
g h</w>
ti c
on g</w>
be en</w>
un d
b l
re n
al ly</w>
ab out</w>
ay s</w>
ic i
at t
or d
ac k</w>
r u
ol d</w>
o ver</w>
wh ich</w>
i an</w>
i c</w>
w ould</w>
a v
g u
s er
es s</w>
id ent</w>
ver n
k e
r b
com p
i g
u s</w>
ag e</w>
ak e</w>
at ed</w>
a in</w>
an t</w>
sa id
T h
in e</w>
rb -</w>
p re
k e</w>
al s</w>
d s</w>
an s</w>
e l</w>
i a</w>
in ter
tw o</w>
con t
re por
ow n</w>
k ing</w>
m e
go vern
, "</w>
th an</w>
for m
en ts</w>
m an</w>
t or
com m
s ur
n ation
p p
f e
th er
oun d</w>
o u</w>
pe op
fir st</w>
un k
am p
en ce</w>
am e</w>
c re
an g
en c
t y</w>
ac e</w>
ar d</w>
ac c
lo w
es ,</w>
in v
h er</w>
us t</w>
o ther</w>
y e
th re
y .</w>
b r
d o
we e
C h
k ed</w>
id e</w>
unk ></w>
< unk></w>
u t</w>
o f
in to</w>
as s
an c
wh en</w>
an ce</w>
em b
ou gh</w>
d ec
o re
us e</w>
off ici
ur s
an n
li on</w>
. "</w>
peop le</w>
ar g
h el
b ec
ad e</w>
at es</w>
t ri
c r
es .</w>
ed n
a st
a il
j o
w e</w>
c ent</w>
p ri
ag ain
l ast</w>
it e</w>
e p
el l
p ec
i es</w>
es e</w>
el y</w>
u e</w>
es s
A n
y ou</w>
en d</w>
en ti
le ad
ye ar</w>
an y</w>
ch in
t e</w>
ou s</w>
pres ident</w>
f u
ol l
edn esday</w>
m is
again st</w>
urs day</w>
govern ment</w>
ti es</w>
a m</w>
v is
re s</w>
b an
said .</w>
al i
p h
ro w
ation s</w>
el ec
il e</w>
i on</w>
n ed</w>
t ,</w>
id ay</w>
as e</w>
ai r
t .</w>
ab le</w>
ic an</w>
c an</w>
e -
el l</w>
in d
tion s</w>
al so</w>
w ar
tim e</w>
u ro
m i
c lo
s ti
sh i
m e</w>
n ing</w>
on s</w>
it ed</w>
nation al</w>
v ed</w>
at ur
po s
f l
ac k
c ould</w>
N e
' t</w>
tu esday</w>
u .
d ay
d uc
w ednesday</w>
v o
ing s</w>
le g
lo o
w ay</w>
v ic
- r
- l
th ursday</w>
m er
c ri
w i
per cent</w>
s ome</w>
b er
be t
mo st</w>
on g
a re
v ing</w>
k ill
B ut</w>
## #</w>
I n
b i
20 1
si on</w>
oo d</w>
po in
. ”</w>
s he</w>
u t
l l</w>
or s</w>
v es</w>
S t
on om
s ou
mon day</w>
H e</w>
no w</w>
I n</w>
st e
R e
, ”</w>
is h</w>
i f</w>
W h
n o</w>
f ac
er ,</w>
is t</w>
pl ay
w s</w>
b il
wh at</w>
ver y</w>
g re
s c
l in
in ce</w>
fr iday</w>
d own</w>
b us
wor ld</w>
j ust</w>
ec onom
t al
st s</w>
m ed
l and</w>
I t</w>
c our
v e
tr y</w>
m y</w>
st ar
g et</w>
en er
b el
em ent</w>
0 0
s ays</w>
a use</w>
d es
min ist
thre e</w>
year s</w>
ou t
at ing</w>
li ke</w>
st or
a ,</w>
cl ud
gr ou
s ch
c ar
ac h
of f</w>
il d
si g
on d
pol ice</w>
i e
lo c
is h
e i
b ack</w>
as h
s en
s on</w>
de f
u. s.</w>
th ere</w>
ti ve</w>
r is
g e
u p
on ,</w>
c all
m ak
chin a</w>
o se</w>
mil lion</w>
hi gh
ac h</w>
ou s
-l rb-</w>
# .
-r rb-</w>
n or
y ing</w>
on d</w>
us ed</w>
for e</w>
m p
M ar
m s</w>
t on</w>
f t</w>
c er
o ver
m a
in clud
th r
g g
man y</w>
- -</w>
s y
su p
s el
i z
1 9
st ate</w>
p lo
on ly</w>
o b
en g
sh o
ar d
es ti
wh ere</w>
por t</w>
ed .</w>
form er</w>
w in
pro v
st ri
v el
ur ing</w>
be fore</w>
th ing</w>
oun d
pu bl
mil it
r e</w>
ti s
i l</w>
bec ause</w>
d o</w>
v en
w om
t ak
l ed</w>
s ed</w>
m ent
as ed</w>
ing ,</w>
hi m</w>
offici als</w>
p s</w>
u m</w>
s un
minist er</w>
gh t
c ap
c or
re m
b le</w>
t a
the m</w>
er ed</w>
mar k
an s
us si
20 0
b oo
pol i
por t
e ff
s ol
st at
sp ec
ow n
s id
om e
g er
m ay</w>
no w
i al</w>
h ere</w>
’ t</w>
f ore
e uro
ic al</w>
wi th
m ade</w>
ro s
po si
be ing</w>
## ##</w>
re t
` `</w>
ne x
ing .</w>
ex pec
v en</w>
t ec
am a</w>
we en</w>
t or</w>
m at
c en
f am
re l
coun try</w>
st oc
W e</w>
st ed</w>
e g
m ake</w>
m ed</w>
d el
U .
l at
d on
bet ween</w>
an t
s o
f er
re g
atur day</w>
c u
nex t</w>
h ol
an ts</w>
t en
ig n</w>
r ic
op er
j ec
vi e
A mer
b li
tic al</w>
mon th
wh ile</w>
r it
d oll
d uring</w>
oun c
po w
ho w</w>
a th
ed ,</w>
se t</w>
ne y</w>
e ver
par t
thr ough</w>
t old</w>
n 't</w>
s ide</w>
re ad
r .</w>
wee k</w>
s po
sec ur
c ur
F r
bli c</w>
l and
t le</w>
s ha
o g
ir a
wor k</w>
an ge</w>
ev en</w>
' '</w>
t ake</w>
lo w</w>
s ince</w>
t ro
w at
il i
c ol
ord ing</w>
n s</w>
b le
am er
ai r</w>
ou se</w>
grou p</w>
a ff
b er</w>
pro duc
O b
b ur
kill ed</w>
f ol
A l
he ad</w>
a z
ati ve</w>
sti ll</w>
b re
repor ted</w>
th in
c amp
ic k
N o
f re
S .</w>
s ay
a w
on .</w>
tis h</w>
pu blic</w>
emb er</w>
pro f
g ener
ar s</w>
f ul
d ,</w>
Ne w</w>
T he
enc y</w>
uc h</w>
s al
for c
ag re
shi p</w>
pr is
f our</w>
sec ond</w>
b ro
la w
go ing</w>
i str
d .</w>
offici al</w>
er .</w>
c an
tur e</w>
sun day</w>
in di
ver s
g o</w>
, 00
und er</w>
h al
wor k
com e</w>
sh ould</w>
sh ow
i d</w>
cont in
l ine</w>
bus in
se as
r y</w>
ai g
su m
ap pe
to p</w>
R om
il y</w>
pe an</w>
und er
milit ary</w>
th ose</w>
wee k
s ay</w>
in cre
h ome</w>
ad d
enti al</w>
is su
s ome
s oc
fu l</w>
U. S.</w>
li f
it al</w>
au th
inv est
s aturday</w>
s us
comp any</w>
b ri
c le
J o
op en
cour t</w>
g row
er n</w>
qu ar
m uch</w>
ann ounc
un i
st ud
in c
inter national</w>
f il
s l
c as
res s</w>
ed er
U n
camp aig
end ing</w>
g ra
is ra
s m
tr ad
ma j
fore ign</w>
pr ic
h u
c ity</w>
pres id
ser v
id e
ther n</w>
t re
g am
p a
p er</w>
di rec
acc ording</w>
or g
be g
# -
includ ing</w>
di d</w>
T his</w>
n am
d y</w>
par t</w>
c c
call ed</w>
re le
su b
di ff
a k</w>
secur ity</w>
th en</w>
gh ts</w>
an ti
t ers</w>
s ing</w>
su ch</w>
comp an
h n
An d</w>
t ain
tr ac
M r.</w>
R o
ch ie
h op
te am</w>
t oo
ci al</w>
re tur
m us
ne ws</w>
a .</w>
or i
t el
sur e</w>
b ar
n um
or d</w>
y our</w>
bil lion</w>
cl ai
p en
e y</w>
sou th</w>
ist an</w>
ar ly</w>
I t
l ing</w>
r ussi
ch arg
h er
L e
d r
o m</w>
p on
se e
min istr
j u
ai l</w>
at h</w>
de b
ban k</w>
o il</w>
an other</w>
fi ve</w>
g ed</w>
end ed</w>
,00 0</w>
s pe
ke y</w>
cont ro
de m
and s</w>
se e</w>
ch ild
a ve</w>
he al
y p
s k
ra is
l ess</w>
poli tical</w>
E n
M on
str uc
A r
hel p</w>
t t
u str
un ited</w>
mark et</w>
d er</w>
d ri
f ound</w>
ar ound</w>
econom ic</w>
esti g
e f
h ear
w in</w>
c ent
ou ght</w>
si ve</w>
st ates</w>
chie f</w>
de vel
th ir
ne w
ch ar
or k</w>
ch ange</w>
b or
b all</w>
thin k</w>
th at
l it
M r</w>
l es</w>
fol low
li k
u al</w>
ic k</w>
d ra
in de
n er</w>
e p</w>
s w
at s</w>
posi tion</w>
is ion</w>
par ty</w>
b as
p ed</w>
p al
co t
ear ly</w>
inv estig
L i
en s</w>
w ell</w>
r un
w ar</w>
g ood</w>
man ag
E uro
f eder
he ad
r ul
d u
b om
clo se</w>
er ing</w>
pu t</w>
l d
pric es</w>
ch amp
tor s</w>
The y</w>
ur e</w>
h om
i on
ec u
mon th</w>
in d</w>
ch ang
lead er</w>
1 0
ros s</w>
qu i
P ar
per i
li m
d en
re gi
f oo
le ast</w>
th em
ti c</w>
an k
h ar
hi gh</w>
ol og
le ft</w>
or t</w>
in a</w>
s on
year -
m .</w>
d ro
bo th</w>
l ong
day ,</w>
con cer
v al
li am
m id
m en</w>
ati c</w>
C om
tal ks</w>
ni ght</w>
ri ght</w>
read y</w>
ira q</w>
#. ##</w>
e 's</w>
st re
s es</w>
announc ed</w>
y 's</w>
cen tr
t ly</w>
, ###</w>
f ri
ou gh
#. #</w>
B o
b s</w>
or y</w>
l y
l arg
pri me</w>
ac ti
Ob ama</w>
org an
vi ol
wh e
repor t</w>
M o
th ese</w>
off ic
em plo
pos si
em p
expec ted</w>
C on
cur ren
oo l</w>
sti tu
w ant</w>
an y
maj or</w>
st and
chin ese</w>
g ame</w>
s it
I f</w>
loc al</w>
devel op
is m</w>
n e</w>
p le
h ouse</w>
m emb
an cial</w>
th ough</w>
l ong</w>
poin ts</w>
et ing</w>
p op
A f
k now
a red</w>
fin al</w>
D e
p an
y ou
se ver
si on
ul t</w>
ag ue</w>
ish ed</w>
lo b
c ase</w>
h and
spo k
a vi
sup port</w>
o ,</w>
ren ch</w>
it ing</w>
elec tion</w>
e as
i gh
p ass
ch ed</w>
co ver
ha pp
campaig n</w>
pl an
too k</w>
o s</w>
qu es
op en</w>
d oc
ex ecu
pl ace</w>
si x</w>
ord er</w>
tr ans
re n</w>
ad v
d ays</w>
ac e
s co
b en
P res
j ud
tr ade</w>
fi el
w ays</w>
pl ay</w>
it al
b ab
as s</w>
ac ks</w>
s ame</w>
d er
ur y</w>
in i
tion al</w>
ar i
wom en</w>
f ic
c oll
z e</w>
to day</w>
en se</w>
month s</w>
d ru
hel d</w>
pol ic
#- #</w>
T u
year- old</w>
feder al</w>
" I</w>
c a
day .</w>
mi ght</w>
il d</w>
op s</w>
pro c
p i
f ail
end s</w>
su cc
pro ble
de al</w>
euro pean</w>
t est</w>
al leg
r an
le t
h n</w>
## -
Rom ney</w>
ne ed</w>
ain s</w>
ag es</w>
n ’t</w>
or e</w>
d ing</w>
fin ancial</w>
stoc k</w>
busin ess</w>
comm it
sel f</w>
go t</w>
le ,</w>
pl ac
Th ere</w>
f und
w on</w>
ru n</w>
in s</w>
m it
er s,</w>
comm un
b est</w>
high er</w>
p e</w>
S y
bi g</w>
sho w</w>
de ath</w>
doll ars</w>
k ore
lik ely</w>
uc le
fe w</w>
spok es
" The</w>
ar re
thir d</w>
om in
i or</w>
g l
id ed</w>
k now</w>
si st
heal th</w>
le ad</w>
y oun
ori ties</w>
cl u
cr is
h it</w>
G re
t en</w>
num ber</w>
pow er</w>
S cot
b an</w>
Amer ic
res t</w>
M c
o p</w>
ac t</w>
with out</w>
coun tri
n ucle
whe ther</w>
pp ed</w>
n ec
for m</w>
la un
low er</w>
us ing</w>
ent .</w>
a 's</w>
lead ers</w>
c ame</w>
lit tle</w>
v ir
t ai
f a
s ing
Un ited</w>
W e
C ar
ist s</w>
Amer ican</w>
e ver</w>
rec ei
lo s
contin u
ta x</w>
c ou
diff er
f ur
gener al</w>
v ol
el i</w>
pl an</w>
Re publ
o t
lif e</w>
hi stor
A s
ir e</w>
c and
au str
) ,</w>
con sid
pri v
ag o</w>
nucle ar</w>
tor y</w>
hal f</w>
- b
hi m
d own
vie w</w>
f our
rec ent</w>
centr al</w>
ti l</w>
seas on</w>
ne ver</w>
la w</w>
p ite</w>
sus pec
reg ul
am ong</w>
ti ci
presid ential</w>
ig g
c up</w>
fam ily</w>
d e</w>
ash ing
fir e</w>
f o
N or
t ain</w>
austr al
vis it</w>
pl ans</w>
att ack</w>
star t</w>
A s</w>
ic t</w>
m ents</w>
an ,</w>
ap pro
ne ed
B ar
B ri
p ing</w>
pal est
r ad
n .</w>
p ast</w>
1 0</w>
a h
mo ve</w>
mon ey</w>
tic s</w>
de mo
w rit
res pon
to o</w>
ag ency</w>
k ,</w>
ke ts</w>
b ack
l ate</w>
te st
por ts</w>
rec ord</w>
mak ing</w>
w est</w>
di ed</w>
at ors</w>
tim es</w>
C o
I s
b ra
e ’s</w>
al e</w>
ent ,</w>
d ou
memb ers</w>
loo k</w>
w ent</w>
com pe
fr on
U ni
I '
as h</w>
it .</w>
h am
is e</w>
child ren</w>
p ur
al y
ic s</w>
c el
ation .</w>
ab il
pos ed</w>
ac ross</w>
un til</w>
g et
u gg
u n</w>
say ing</w>
r or
p ay</w>
p ay
y ’s</w>
a way</w>
econom y</w>
op position</w>
Th at</w>
tion .</w>
re ally</w>
f un
cand id
ation ,</w>
al -
r ac
Pres ident</w>
sever al</w>
pa ren
e ach</w>
l ar
S ou
bu ild
is l
er g
y -
s af
p ak
sch ool</w>
pe ace</w>
pop ul
ain ed</w>
lo t</w>
li ght</w>
stoc ks</w>
inv ol
in ian</w>
e ts</w>
ne ar</w>
v al</w>
organ iz
doll ar</w>
d id
follow ing</w>
re li
ru p
auth orities</w>
G o
it h</w>
demo cr
h ard</w>
ever y
lob al</w>
ar ri
poin t</w>
k o
er s.</w>
ay ,</w>
bus h</w>
leg al</w>
fi ed</w>
S he</w>
sh are</w>
sec u
b al
w an
re as
th ers</w>
id ence</w>
b ed</w>
' re</w>
gi ve</w>
f ace</w>
bec ome</w>
countri es</w>
ar ds</w>
us h
it 's</w>
me eting</w>
wom an</w>
ent ly</w>
al ,</w>
te am
ond on</w>
e very</w>
con f
en ,</w>
bo dy</w>
c are
in form
al ready</w>
C ol
# ,###</w>
p end
tion ,</w>
ri ghts</w>
said ,</w>
bri tish</w>
ex t
ation al</w>
compan ies</w>
sha res</w>
dis c
l s</w>
re ,</w>
ous ly</w>
ne t</w>
y s</w>
gh an
un ion</w>
F or</w>
tak ing</w>
d at
p .</w>
com ing</w>
P e
t our
st -
Sy ri
ind ustr
con trac
o ol
0 0</w>
off ice</w>
le y</w>
M ic
med i
k ong</w>
med ia</w>
def ense</w>
or ity</w>
s ci
ke ep</w>
on -
h ong</w>
res ear
b igg
w al
f ar</w>
ter ror
ain ing</w>
h um
part ment</w>
at or</w>
forc es</w>
c ut</w>
ro w</w>
ad ministr
bet ter</w>
n ation</w>
a head</w>
m er</w>
ste m</w>
Ch in
ne arly</w>
s '</w>
ch all
im port
u res</w>
al low
vers ity</w>
en ed</w>
foo t
gr am
an g</w>
ex c
res ul
c ul
pro tec
for ce</w>
nor th</w>
Wh en</w>
sho t</w>
w ard</w>
It 's</w>
eff ec
do es</w>
p at
ro c
g lobal</w>
s our
S te
c ar</w>
e y
str ong</w>
en ing</w>
o w</w>
par liam
pro jec
in fl
bu d
f rench</w>
clo sed</w>
jo in
l u
sol di
s qu
quar ter</w>
le .</w>
f ar
m al
I ’
isra eli</w>
p ic
t ow
fin d</w>
Y ork</w>
ho sp
su gg
ch e
cl in
sal es</w>
per son
des pite</w>
amer ican</w>
m ing</w>
sec ret
sen ior</w>
ne t
z ed</w>
un e</w>
gre at</w>
dec ision</w>
m ust</w>
coun tr
tec hn
sh oo
soc i
cap ital</w>
grow th</w>
w an</w>
h our
sou thern</w>
in j
li er</w>
boo k</w>
ow ever
repor ts</w>
Y ou</w>
in es</w>
tro ops</w>
$ 1
P ro
o d
se en</w>
ac tion</w>
some thing</w>
" We</w>
P ol
n ess</w>
t on
gam es</w>
i o</w>
wor king</w>
fer ence</w>
be h
“ I</w>
ti v
retur n</w>
et y</w>
serv ice</w>
m ur
i ous</w>
le ague</w>
tr av
- year-old</w>
v el</w>
youn g</w>
D em
fre e</w>
d am
G r
rele ased</w>
ashing ton</w>
tr ying</w>
ac ked</w>
f el
arre sted</w>
) .</w>
comp le
k er</w>
mil li
isra el</w>
ac y</w>
vic tory</w>
re .</w>
sm all</w>
p ul
ay .</w>
o -
de al
b att
lo st</w>
anti -
sh ar
po t
vo te</w>
as ked</w>
us ti
cris is</w>
a i</w>
u g
me as
owever ,</w>
w ell
m en
avi d</w>
. ,</w>
or ge</w>
m ain
d ue</w>
te e</w>
ex plo
ser vic
vie w
In ter
spokes man</w>
r ate</w>
ci l</w>
an k</w>
russi an</w>
p le</w>
r an</w>
att acks</w>
h old</w>
pres s</w>
sy stem</w>
b ir
E d
ell ing</w>
don 't</w>
d ed</w>
M in
se em
ch es</w>
re pres
larg est</w>
th ous
at ely</w>
O n</w>
possi ble</w>
tak en</w>
201 2</w>
year ,</w>
re ach
l y,</w>
ener g
know n</w>
f oc
ch ing</w>
en ter
tri al</w>
se ven</w>
t arg
ac coun
kill ing</w>
c y
russi a</w>
bre ak
W or
lead ing</w>
cu st
2 0</w>
ha ving</w>
d re
acc used</w>
ag ed</w>
it ’s</w>
t -
tai wan</w>
beg an</w>
t s,</w>
A t</w>
g es</w>
si ons</w>
pro mis
work ers</w>
l ad
m y
wh ose</w>
gi ven</w>
t ou
charg es</w>
on es
bel ie
d ic
n er
pre vi
t own</w>
i m</w>
t s.</w>
H e
a ver
said :</w>
emplo y
cre d
an aly
g er</w>
ed ly</w>
ni a</w>
it y,</w>
play ers</w>
palest inian</w>
fur ther</w>
gra m</w>
G er
in e
lat er</w>
on es</w>
beh ind</w>
eff or
ser ies</w>
g as</w>
disc us
## .
su ff
att emp
it ,</w>
s :</w>
s ent
del i
ali for
al most</w>
our n
ic a</w>
se ,</w>
de ad</w>
M an
di es</w>
c anc
pl ann
S u
S ec
c all</w>
kore a</w>
oper ation</w>
i ons</w>
it y.</w>
sch ool
call s</w>
direc tor</w>
hum an</w>
h ard
is ,</w>
J an
me et</w>
com pl
e u</w>
re co
m om
Euro pean</w>
au gh
e ast</w>
com es</w>
industr y</w>
w el
oc r
mp ic</w>
ag ain</w>
r ing</w>
al ways</w>
f av
ar my</w>
H ar
ound ed</w>
r ace</w>
con di
b ul
e f</w>
ch air
sel f
indi a</w>
1 ,</w>
t al</w>
c are</w>
S ch
pro gram</w>
abil ity</w>
“ The</w>
i ev
pro gram
c es</w>
year .</w>
c al
t om
19 9
oc i
f ood</w>
ol y
am id</w>
out side</w>
incre as
b ru
ex per
im pro
sig ned</w>
w id
ex change</w>
En g
W il
execu tive</w>
we st
nation s</w>
nor thern</w>
re al</w>
dru g</w>
pak istan</w>
ei ght</w>
fi gh
F e
on ce</w>
bo ard</w>
O ne</w>
polic y</w>
es sion</w>
bigg est</w>
Jo hn</w>
Bri tish</w>
contro l</w>
loo king</w>
h or
cle ar</w>
lat est</w>
p ho
f ell</w>
m ag
l l
g ir
mar k</w>
r ound</w>
priv ate</w>
ke ep
k .</w>
im p
wee ks</w>
oo d
elec tions</w>
energ y</w>
thous ands</w>
inter est</w>
af r
id s</w>
ex peri
G e
d le</w>
m ul
le av
jo b</w>
B e
mi gr
S e
’ re</w>
f all</w>
pr ice</w>
in ju
en ough</w>
el s</w>
w r
en .</w>
D i
Dem ocr
ol d
. .
an a</w>
sh or
ex ic
ch ec
ghan istan</w>
he av
regi on</w>
ter m</w>
cel e
f all
al li
contin ue</w>
ag u
al ity</w>
be at</w>
fiel d</w>
a ’s</w>
c at
v ide
h ur
comm is
compe ti
In di
con fir
l ab
ta x
ast ern</w>
mis sion</w>
ap er</w>
ro se</w>
min ut
am es</w>
con g
Sou th</w>
ir an</w>
ind ones
al .</w>
o thers</w>
olog y</w>
invest ors</w>
wh ite</w>
It ’s</w>
incre ase</w>
ben ef
ili pp
ear lier</w>
re qu
s li
thre at
wat er</w>
v ice</w>
h on
1 2
re st
fr ance</w>
s ite</w>
inde pend
T im
for man
ex pl
ger man</w>
co ach</w>
de ad
th ings</w>
us h</w>
b loc
play ed</w>
oun ds</w>
m u
re bel
lin es</w>
B r
go ti
S p
in t
g old</w>
stat ement</w>
get ting</w>
inform ation</w>
st em
pre mi
le t</w>
with in</w>
E x
al ong</w>
mat ch</w>
in sur
3 0</w>
ro le</w>
wi f
bel iev
C oun
Is ra
fu ture</w>
Af ter</w>
o s
champ ion
wor ld
tel ev
fi ght</w>
us es</w>
is c
A d
J u
ne goti
U S</w>
ful l</w>
anc es</w>
issu e</w>
m it</w>
st er
prov ince</w>
b ill</w>
e z
st ar</w>
ri st
S un
ne igh
ic ans</w>
differ ent</w>
agre ement</w>
5 0</w>
bi d</w>
des cri
B l
H ouse</w>
i ed</w>
e k</w>
sig n</w>
str at
mar kets</w>
s ent</w>
ful ly</w>
k y
h un
str ugg
ri bu
of ten</w>
trad ing</w>
le vel</w>
import ant</w>
D avid</w>
effor ts</w>
on y</w>
v il
Ne w
ed uc
ec e</w>
u ally</w>
e th
st u
per forman
c am
W ith</w>
to ge
S er
st er</w>
invest ment</w>
Wh at</w>
m ain</w>
re f
y a</w>
id enti
afr ican</w>
S o</w>
g un
en n
agre ed</w>
i e</w>
are a</w>
Republ ican</w>
st op</w>
m ,</w>
quar ter
y ork</w>
te sts</w>
atur e</w>
law y
fi c</w>
bo s
stre et</w>
new sp
am b
con ference</w>
prof it</w>
ris e</w>
B ro
open ed</w>
o .</w>
stri ke</w>
st age</w>
S h
jud ge</w>
cele br
e qu
spec i
tic ul
des ig
ti an</w>
ira q
curren t</w>
hour s</w>
id a</w>
dat a</w>
star ted</w>
per cent
su pp
fil m</w>
ing ly</w>
s il
i ght</w>
H is</w>
clu b</w>
don ’t</w>
k y</w>
em erg
inde x</w>
ex p
bom b
ind ic
g a
secret ary</w>
B rit
N ational</w>
c row
s )</w>
au l</w>
m ember</w>
P h
G u
lar ge</w>
cen ter</w>
wh y</w>
af ter
fam il
soc ial</w>
ha m</w>
se ar
pu t
acc ep
1 .
ti n</w>
belie ve</w>
5 0
ric a</w>
mor ning</w>
west ern</w>
rec ord
tr u
be l</w>
build ing</w>
develop ment</w>
com b
mak es</w>
bud get</w>
s ’</w>
v id
and ,</w>
inju red</w>
tre at
y et</w>
ab l
charg ed</w>
du ce</w>
ri ed</w>
g ave</w>
administr ation</w>
No v
fron t</w>
A c
ministr y</w>
ap p
pl om
gr ound</w>
ec h</w>
tur ned</w>
ha el</w>
ad a</w>
An g
C or
s em
Q u
ur o</w>
se tt
br it
ph ilipp
g en
viol ence</w>
B C</w>
er r
wan ted</w>
ec t</w>
enc es</w>
m ay
tur n</w>
vir on
m et</w>
g ar
cust om
ol e</w>
an e</w>
sugg est
n ,</w>
st and</w>
Ob am
h und
tw o-
mo ved</w>
vi l</w>
t ail
grou ps</w>
n ings</w>
s ,"</w>
n a
sus p
di plom
ter min
stud ents</w>
ist an
show ed</w>
b it</w>
I' m</w>
ab o
w ide</w>
in ,</w>
ast er</w>
ar gu
O c
sp ace</w>
n ers</w>
j e
1 8
do ing</w>
jo bs</w>
coun cil</w>
m ic
o ther
p t</w>
ess es</w>
d om
u r</w>
c ra
li g
open ing</w>
co st</w>
ban ks</w>
deb t</w>
do es
rele ase</w>
R ussi
se a</w>
soldi ers</w>
w as
le ar
ban k
F or
win ning</w>
con su
o d</w>
n omin
ar r
a ren
inter est
stud y</w>
govern ment
t op
pro secu
2 ,</w>
diff ic
spec ial</w>
o l</w>
p ati
ini ti
the y
th ought</w>
j ourn
pris on</w>
ni fic
m ess
c li
cri min
j ing</w>
th ,</w>
gre at
po st
pres sure</w>
b order</w>
sp ending</w>
pro pos
Tu esday</w>
an i
los s</w>
en ted</w>
off er</w>
par ticul
si mp
L ondon</w>
is ed</w>
A b
su per
sa w</w>
vic tim
af rica</w>
u k
or ,</w>
a h</w>
te l</w>
m et
ro om</w>
bec ame</w>
ass oci
w ants</w>
0 ,</w>
s on,</w>
con c
bre ak</w>
austral ian</w>
em ents</w>
id ing</w>
mo vi
clin ton</w>
ber t</w>
re jec
respon si
m as
cont ribu
st on</w>
D ec
con sum
ti tle</w>
rebel s</w>
Rom ne
se t
bro ad
re ti
parliam ent</w>
dra w
ro ad</w>
re fer
alifor nia</w>
gh an</w>
t able</w>
on e-
res ol
investig ation</w>
W al
bil ity</w>
sy stem
r ates</w>
ati ves</w>
play ing</w>
le vel
o t</w>
Fr iday</w>
run ning</w>
con serv
re ds</w>
chair man</w>
sch ed
Mon day</w>
bom b</w>
mak ers</w>
es tim
g s</w>
u. n.</w>
him self</w>
im medi
ver s</w>
S an
sup por
iraq i</w>
resul ts</w>
f y</w>
win s</w>
u tion</w>
tr ou
is i
grow ing</w>
sur pris
in f
dec ad
ar ti
sco red</w>
fail ed</w>
fri end
str ai
ra ther</w>
a -
st ro
exic o</w>
f ound
res p
al ist</w>
cover ed</w>
1 2</w>
as ian</w>
ph one</w>
bu y</w>
pro test
Ne ws</w>
au d
ap poin
mo v
foot ball</w>
succ ess
fe el</w>
im migr
m em
ev idence</w>
r i</w>
acti vi
ge ts</w>
en viron
se x
P er
ur ged</w>
le ave</w>
h ous
brit ain</w>
m un
clo s
re ven
ac tu
t es</w>
ar t</w>
recei ved</w>
thre e-
M i
sig nific
id ents</w>
n ame</w>
qu ali
B y</w>
four th</w>
tak es</w>
clai ms</w>
prov ide</w>
le d
commit tee</w>
St ate</w>
telev ision</w>
se .</w>
er ship</w>
c lim
pro test</w>
2 .
se par
b ased</w>
e e</w>
id es</w>
st .</w>
s cre
indi an</w>
usti ce</w>
vo ters</w>
k ind</w>
pro mo
pr in
t a</w>
bl ack</w>
bra z
con vic
p ,</w>
chall eng
de fe
br ing</w>
n ine</w>
ste p</w>
st ,</w>
rem ains</w>
t yp
t ab
ris k</w>
enc ed</w>
sit u
trad i
vis ion</w>
O ly
add ed</w>
hop e</w>
Wor ld</w>
( Re
p il
p it
w all</w>
y an</w>
col le
C our
Th at
ear s</w>
iz ed</w>
dem and</w>
St re
1 1</w>
C en
pro per
ch o
Nor th</w>
F l
gr ad
rul ing</w>
1 5</w>
t our</w>
M us
u stri
war ned</w>
re -
coll ec
af ghanistan</w>
rais ed</w>
ad vis
Wh ile</w>
m ad
previ ous</w>
e uro</w>
Ch ina</w>
d one</w>
S en
W ednesday</w>
h ic
ger many</w>
el es</w>
ob ama</w>
M it
show s</w>
emplo ye
. m.</w>
af f</w>
c y</w>
h us
v ent
med ical</w>
servic es</w>
h ou
av o
qu e</w>
austral ia</w>
g ing</w>
di st
e ase</w>
t s
Th ursday</w>
ash ed</w>
ati v
figh ting</w>
al low</w>
S ome</w>
S ep
proc ess</w>
high -
per son</w>
hosp ital</w>
issu es</w>
sur vi
e ,"</w>
ann ual</w>
li ve</w>
in st
we ap
P l
row n</w>
produc tion</w>
de partment</w>
b ag
k et
repor t
t ex
P I
az a</w>
re ach</w>
spe ak
b all
m oun
“ We</w>
t in
sec ond
leg isl
B er
y s
fir m</w>
histor y</w>
hop es</w>
forc ed</w>
T r
-b ased</w>
shi ps</w>
re qui
T o
minut es</w>
sc en
mo d
hel ped</w>
an -
con nec
di str
str ong
pow er
. co
se ts</w>
p aid</w>
ad di
St ates</w>
w ro
b a</w>
bl ed</w>
fi gu
bu ild</w>
to tal</w>
did n't</w>
bil li
B u
suspec ted</w>
ati s
con stitu
com pu
pho to
resear ch</w>
con struc
op port
C ity</w>
E l
R es
ro r</w>
er y</w>
in ed</w>
ail y</w>
b and</w>
week end</w>
ay si
ch i
1 5
man u
con duc
wor th</w>
rem ain</w>
mak er</w>
ver si
w a
p ain
o k
rec ently</w>
in ten
b ol
ell s</w>
de mon
si x
mark et
Tu es
t un
deb ate</w>
u ary</w>
3 .
publ ic
hund reds</w>
ch ance</w>
P ri
u te</w>
nam ed</w>
mid dle</w>
M ay</w>
d -
stand ing</w>
b loo
O r
br ought</w>
sci enti
chang es</w>
A fr
z ens</w>
Mar ch</w>
re ad</w>
ve hic
ac king</w>
so on</w>
ex pres
c au
R i
vide o</w>
go al</w>
z one</w>
pri mar
ci ti
j um
ter ,</w>
am ic</w>
ch ild</w>
for ward</w>
manag er</w>
ch ur
eff ort</w>
J ap
C ong
.. .</w>
fun d</w>
P o
pro bab
tu res</w>
re duc
I’ m</w>
sur ve
ic ally</w>
sp ent</w>
a ur
cu ts</w>
tim e,</w>
es s,</w>
cor por
eg yp
cri tic
st aff</w>
Sun day</w>
pot ential</w>
v ill
alleg ed</w>
de tail
play er</w>
1 4
am oun
th y</w>
res er
se p
all y,</w>
dec ided</w>
year s,</w>
concer ns</w>
as si
pp ing</w>
b on
s ell</w>
M or
k et</w>
r ich</w>
I ran
se x</w>
de ath
Uni versity</w>
av ail
l ist</w>
ch ,</w>
A u
e al
f f</w>
il li
M ed
champ ion</w>
p rec
M ur
ou ld
tour nam
f lo
dis pu
cred it</w>
year s.</w>
li ber
A pp
l er</w>
st ren
continu ed</w>
sion al</w>
proble ms</w>
e :</w>
no v
on line</w>
ag ing</w>
mis sing</w>
su d
U K</w>
need s</w>
" It</w>
t em
candid ate</w>
comm er
ind ustri
ish ing</w>
clai med</w>
long -
tri ed</w>
est abl
W ashington</w>
d omin
cer tain
de termin
pro g
a ther</w>
es s.</w>
c ir
them sel
need ed</w>
ci vil</w>
elec tr
be i
T o</w>
ai t</w>
sh ort</w>
si mil
pre me</w>
wif e</w>
d ar
" .</w>
we b
th .</w>
est er
ad i
an .</w>
bu s</w>
O ff
stren g
includ e</w>
tr aff
f li
3 0
Fr id
D on
f ans</w>
F ace
lo ve</w>
tow ard</w>
ill ing</w>
su it</w>
r is</w>
sum mit</w>
f res
Eng land</w>
rais e</w>
st ay</w>
probab ly</w>
c op
demon str
W est</w>
G i
regi on
offic ers</w>
stor y</w>
appe ared</w>
ist er</w>
commun ity</w>
ad de
gi ving</w>
man ,</w>
as k</w>
techn ology</w>
3 -
toge ther</w>
invol ved</w>
uc k</w>
1 7
f le
ra p
x ed</w>
re ve
aver age</w>
d ang
oly mpic</w>
gi ant</w>
b it
mus ic</w>
doc um
an im
( U
mal aysi
as ,</w>
coun ter
k es</w>
1 6
contrac t</w>
enc e.</w>
is .</w>
b ia</w>
res pec
d in
wor ks</w>
u ter
i ally</w>
H owever,</w>
reach ed</w>
19 8
ev ent</w>
” .</w>
s ."</w>
3 ,</w>
## #.##</w>
newsp aper</w>
ac qu
A pri
Apri l</w>
plan e</w>
s la
I tal
repres ent
w ood</w>
gu il
f loo
batt le</w>
popul ar</w>
or ig
qu ick
fo rec
ord in
e ."</w>
##. #</w>
cas es</w>
bei jing</w>
ar med</w>
e qui
democr atic</w>
h y
b ad</w>
il ed</w>
ro om
fi f
rul es</w>
laun ched</w>
k no
sp ir
s anc
commis sion</w>
tal k</w>
R ic
hu ge</w>
li m</w>
mo ving</w>
c ro
S und
st y
an ese</w>
me ans</w>
co sts</w>
victim s</w>
hear t</w>
y ed</w>
C ap
k en
Fr anc
vi a</w>
con fl
edn es
er -
att or
pass eng
bec om
sig n
J er
C N
co operation</w>
W ednes
y al</w>
F i
expec t
' ve</w>
ques tion</w>
p ush
P aul</w>
as sa
ent ary</w>
W est
al ed</w>
ser ious</w>
sing le</w>
or ida</w>
us i
N o</w>
ul ed</w>
1 .</w>
allow ed</w>
cri m
is land</w>
8 ,</w>
is s</w>
C an
discus s</w>
Th urs
st ep
char ac
a b</w>
euro pe</w>
ag e,</w>
as hi
ex tr
person al</w>
T e
T V</w>
ther ,</w>
gh t,</w>
it y
st ing</w>
laun ch</w>
employ ment</w>
tr aining</w>
L o
r at
s of
tain ed</w>
e z</w>
l ank
s -
reli gi
land s</w>
ans w
s or
c ros
su ic
ment al</w>
el ing</w>
st op
e astern</w>
ab or
indi vid
al though</w>
organiz ation</w>
ic ations</w>
Chin ese</w>
St at
mo ther</w>
hal f
9 ,</w>
Pol ice</w>
that ,</w>
char ge</w>
mur der</w>
b .</w>
ar m
re pe
m ar</w>
fin ance</w>
0 .
no thing</w>
performan ce</w>
offic er</w>
sig ns</w>
n atur
ge orge</w>
premi er</w>
P u
see king</w>
war ds</w>
val u
le ban
in ning</w>
en sive</w>
t ember</w>
publ ished</w>
s ri</w>
pre v
wor ked</w>
proble m</w>
f al
in tro
strai ght</w>
J une</w>
th -
Wh ite</w>
d augh
s low
As soci
ro ad
T w
arri ved</w>
ac hi
ag e.</w>
in stitu
vi et
confir med</w>
foc us</w>
## th</w>
es pec
at er
ple d
P r
po se</w>
mar ri
M e
infl u
cou ple</w>
manu fac
g ri
an ian</w>
sc and
h and</w>
PI )</w>
s mo
ni ger
dro p</w>
2 5</w>
ec h
ra in</w>
b at
ne l</w>
ght ly</w>
P al
p un
saf ety</w>
tr an
s n
co -
.co m</w>
boo st</w>
T ur
po st</w>
in ste
c ab
(U PI)</w>
peri od</w>
plann ed</w>
re form
A ll</w>
Jo hn
i -
L os</w>
or ing</w>
e an</w>
t an
## ,###</w>
g aza</w>
jo hn</w>
sum mer</w>
l an
care er</w>
0 .</w>
an ish</w>
S aturday</w>
A n</w>
Mic hael</w>
C l
10 0</w>
c er</w>
lin ed</w>
F in
rel ation
v ari
k ish</w>
espec ially</w>
li ving</w>
for d</w>
De partment</w>
cre ate</w>
cour se</w>
are as</w>
c ut
dra w</w>
ch .</w>
re fu
t ol
i ti
tion s.</w>
and er</w>
ad or</w>
sec tor</w>
port ers</w>
un ity</w>
tur key</w>
y u
en ge</w>
in come</w>
par ts</w>
Go vern
est er</w>
F rench</w>
diffic ult</w>
cor rup
elec ted</w>
er i
m exico</w>
gu n</w>
shoo ting</w>
neigh bor
ch ers</w>
esti c</w>
c ast
fa ther</w>
thre at</w>
dre w</w>
ac i
5 ,</w>
il legal</w>
re public</w>
seem s</w>
gh t.</w>
re publ
res ult</w>
co ast</w>
strat eg
au di
projec t</w>
s am
oo ds</w>
air port</w>
enc e,</w>
Y or
in side</w>
el a</w>
deal ers</w>
S al
in ation</w>
j i
- year</w>
Ch ar
beg in</w>
4 ,</w>
b ang
M a
em ent.</w>
con ven
att en
clai m</w>
at ory</w>
ay ed</w>
actu ally</w>
def ic
U S
l ondon</w>
E g
go es</w>
plac ed</w>
appe ar
ques tions</w>
after no
2 .</w>
bu il
simil ar</w>
n ic
ash es</w>
long er</w>
tim e.</w>
s ession</w>
uni versity</w>
ev ent
al ists</w>
issu ed</w>
pl ant</w>
s old</w>
tel lig
pe ace
paren ts</w>
me an
incre ased</w>
ca used</w>
leav ing</w>
le n</w>
reg im
as sist
M y</w>
San tor
ar rest</w>
Syri an</w>
n am</w>
chang ed</w>
star ting</w>
re ly</w>
we al
H er
c ast</w>
r ally</w>
ment .</w>
m a</w>
w .</w>
jo in</w>
oo g
del eg
ord ered</w>
to ber</w>
soc cer</w>
d ad</w>
er c
them .</w>
ali tion</w>
sour ces</w>
orig in
dom estic</w>
A t
descri bed</w>
all ,</w>
fac es</w>
emerg ency</w>
poli tici
sear ch</w>
" It's</w>
fac t</w>
S and
mul ti
lab or</w>
b ers</w>
and ed</w>
d en</w>
ho st</w>
kore an</w>
pre t
n on-
con dem
fund s</w>
heav y</w>
an ni
lo s</w>
ar ch
indones ia</w>
v e-
stor m</w>
par tici
and a</w>
at or
h owever,</w>
meas ures</w>
trav el</w>
bru ary</w>
S an</w>
de fin
201 0</w>
k a</w>
le f
region al</w>
attemp t</w>
acc ess</w>
P ak
some one</w>
mis sed</w>
z en</w>
Eg yp
F o
we ak
A S
s le
minist ers</w>
po or</w>
w ashington</w>
ud e</w>
p m</w>
g n
comp ared</w>
cer tain</w>
milit ants</w>
end er</w>
h ood</w>
ment ,</w>
Mit t</w>
aud i</w>
st ly</w>
w ish</w>
T ex
on a</w>
cong ress</w>
ser i
6 -
week ,</w>
dou b
ital ian</w>
construc tion</w>
pro posed</w>
4 0</w>
ide a</w>
im bab
te ach
or gi
exper ts</w>
b lo
t ell</w>
dro pped</w>
qu ite</w>
H ou
Th er
## #,###</w>
g ol
ation s.</w>
di v
y n
qu ake</w>
ec ted</w>
educ ation</w>
suic ide</w>
st ation</w>
A le
ad ,</w>
er 's</w>
ris ing</w>
co ver</w>
re d
par ties</w>
a u</w>
res um
de ep
b ase</w>
mil es</w>
ci es</w>
. com
wor l
pris on
pro tests</w>
K ore
sched uled</w>
air s</w>
d ers</w>
tur al</w>
in k</w>
p ack
chall enge</w>
na to</w>
ou d</w>
ad ian</w>
avail able</w>
ky o</w>
eal and</w>
bor n</w>
O n
l y.</w>
S atur
Cour t</w>
enc our
off ered</w>
f ra
abo ve</w>
se y</w>
join t</w>
h ,</w>
cor p.</w>
19 7
ri val</w>
ra in
tournam ent</w>
sp i
eng land</w>
guil ty</w>
ha ps</w>
loo ked</w>
Le ague</w>
nec ess
f er</w>
6 ,</w>
mit ted</w>
ear nings</w>
de pu
au g
g in
H o
contro l
pen al
Ge orge</w>
child ren
see k</w>
sl am
that 's</w>
partici p
l in</w>
ques tion
maj ority</w>
ha i</w>
. )</w>
fel t</w>
por ting</w>
govern or</w>
wro te</w>
1 -
retur ned</w>
7 ,</w>
any thing</w>
tri p</w>
201 1</w>
acti v
ad em
li ves</w>
S ha
terror ism</w>
self -
figu res</w>
cas h</w>
ter .</w>
res idents</w>
en jo
call ing</w>
ound ing</w>
o ts</w>
stor e</w>
it or</w>
resp ond
produc ts</w>
ri es</w>
de l</w>
Inter national</w>
themsel ves</w>
situ ation</w>
thr ough
re form</w>
C amer
et ,</w>
tr ack</w>
d aily</w>
inj ur
ter n
A ustr
r ying</w>
champion ship</w>
s elling</w>
inter view</w>
ar y,</w>
isl amic</w>
B ra
rel ations</w>
pre dic
ow s</w>
ali ban</w>
ing s,</w>
H oll
at trac
ex amp
terror ist</w>
ter ms</w>
rel ated</w>
bro k
di e</w>
en s
wh at
signific ant</w>
p al</w>
t y
G ing
se qu
ill s</w>
M at
z imbab
to -
pur ch
loo ks</w>
J ames</w>
mis s
ro b
fu el</w>
re bel</w>
it ors</w>
insur ance</w>
1 3</w>
in tellig
fi red</w>
cl ass</w>
particul arly</w>
respon se</w>
h our</w>
ear th
fi re
wh ole</w>
ad ver
k u
Euro pe
protec t</w>
fi g
on e.</w>
M id
t on,</w>
hom es</w>
cr ash</w>
ve ter
kill s</w>
independ ent</w>
w on
t ough</w>
E ven</w>
ord ers</w>
team s</w>
Scot tish</w>
at e
he 's</w>
am i</w>
c ause</w>
D es
M ay
li es</w>
1 6</w>
fin als</w>
L ast</w>
b ing</w>
ter ed</w>
v .</w>
rais ing</w>
ital y</w>
s end</w>
T O
hear d</w>
on e,</w>
isc al</w>
amer ica</w>
t g
avo id</w>
s lo
co alition</w>
k il
L ab
natur al</w>
Americ ans</w>
w ounded</w>
1 4</w>
philipp ine</w>
re view</w>
sp ain</w>
sup porters</w>
dri ve</w>
L ond
pre pa
(Re uter
Min ister</w>
ap paren
oper ations</w>
M s.</w>
b y
s ports</w>
v an
I ran</w>
j er
f light</w>
ex pen
movi e</w>
ri ght
t esti
at e,</w>
ap pl
l a</w>
p ush</w>
anc ed</w>
H am
(Reuter s)</w>
ation s,</w>
hol ding</w>
z z
law makers</w>
mar ch</w>
imp act</w>
all -
ke pt</w>
crimin al</w>
ph ys
re e</w>
hu man
2 -
i er</w>
ar ms</w>
er a</w>
net work</w>
A N
p hi
Y ou
ag o,</w>
ti ves</w>
milli ons</w>
n a</w>
H ow</w>
den ied</w>
school s</w>
fres h</w>
ow ned</w>
high est</w>
ing ing</w>
f ears</w>
Ch rist
1 8</w>
D u
stud ent</w>
au tom
w ay
fri end</w>
' ll</w>
s we
Ju ly</w>
ez u
ru le</w>
y en</w>
conf idence</w>
istan i</w>
concer n</w>
Th om
" This</w>
ou t.</w>
sent enced</w>
I N
c o</w>
ex am
colle ge</w>
A si
lo se</w>
ut ch</w>
tion s,</w>
weap ons</w>
us ,</w>
af ghan</w>
sett le
can ada</w>
j ap
sen ate</w>
al d</w>
keep ing</w>
g ains</w>
per form
r id
gra ph
ai med</w>
say s.</w>
tur ing</w>
w ait</w>
A cc
ul f</w>
every thing</w>
f iscal</w>
- up</w>
k ill</w>
h dad</w>
rest aur
th ai</w>
braz il</w>
b ly</w>
convic ted</w>
refu ge
sal e</w>
believ ed</w>
canc er</w>
run s</w>
4 .
i ties</w>
o v
A m
includ ed</w>
Th ese</w>
g ni
manag ement</w>
$ 2
prosecu tors</w>
No .</w>
prev ent</w>
B i
y ester
power ful</w>
famil ies</w>
re fl
Face book</w>
re b
s ,”</w>
consid er</w>
sen se</w>
B ur
fil ed</w>
tr ain</w>
r s</w>
W at
Scot land</w>
k id
i ,</w>
expec t</w>
posi tive</w>
sh op
sp r
mas sive</w>
amoun t</w>
ail ed</w>
chur ch</w>
b ow
conserv ative</w>
candid ates</w>
did n’t</w>
ak es</w>
te .</w>
in o</w>
land ,</w>
att ack
uc k
experi ence</w>
m ac
pass ed</w>
M ore</w>
mat ter</w>
prof es
u d</w>
fri ends</w>
buil t</w>
pr ac
Republ icans</w>
s .”</w>
m and
gu e</w>
l t
ab ly</w>
ei ther</w>
v e,</w>
ber g</w>
ing s.</w>
h it
G l
T wit
H u
w ond
l ess
in si
per f
m ist
ess or</w>
the ast</w>
mp ics</w>
ch er</w>
el i
b ann
s par
to kyo</w>
inter net</w>
’ ve</w>
rad io</w>
ter ror</w>
B ank</w>
val ue</w>
gu ard</w>
ex -
n y</w>
be y
W ar
crim es</w>
and ing</w>
oun ce</w>
sanc tions</w>
hi m.</w>
te en
ur ges</w>
er ous</w>
cra ft</w>
in -
ini ans</w>
br id
j ustice</w>
f air</w>
op pon
4 -
re duce</w>
G oog
ar t
el ed</w>
pol l</w>
comm on</w>
gr and</w>
lad es
P at
fac ing</w>
sour ce</w>
M al
mo b
v o</w>
intro duc
consum er</w>
w ind
C up</w>
f ying</w>
ro l
ay ing</w>
th west</w>
k new</w>
p .m.</w>
can 't</w>
f em
an mar</w>
lo sing</w>
does n't</w>
z ealand</w>
wor st</w>
vo y</w>
b la
F eder
ar ian</w>
can not</w>
as ia</w>
Jan uary</w>
vie ws</w>
quick ly</w>
A .</w>
sli ghtly</w>
cl ass
impro ve</w>
e .”</w>
tur kish</w>
ad op
a p</w>
mess age</w>
viet nam</w>
compu ter</w>
V ir
ex ist
sub jec
shi p
ed ed</w>
am ed</w>
e ing</w>
re land</w>
th ail
cre ated</w>
fig ure</w>
suspec t</w>
B C
f ast
fir st-
ent s.</w>
thail and</w>
s "</w>
p ass</w>
pl es</w>
lawy er</w>
inste ad</w>
analy sts</w>
anc e,</w>
str ic
an s,</w>
is s
c ue</w>
g one</w>
employe es</w>
Stre et</w>
war ning</w>
depu ty</w>
ent s,</w>
succ ess</w>
fi ght
“ It</w>
E ar
r on
re t</w>
busin ess
primar y</w>
condi tions</w>
z er
ter rit
spe ech</w>
indones ian</w>
expres sed</w>
adv ant
l ack</w>
am bi
bo y</w>
5 -
ou l
anni vers
corrup tion</w>
A T
min ute</w>
pre par
N .
E ast</w>
ro man
los ses</w>
19 6
sa ve</w>
f at
religi ous</w>
5 00</w>
mar ks</w>
S tr
B al
every one</w>
P re
agre e</w>
do or</w>
Pe op
cri me</w>
re vol
anc ing</w>
S i
dou ble</w>
cent ury</w>
Tim es</w>
ga ther
plann ing</w>
fl u</w>
col om
ed s</w>
dec la
consid ered</w>
ill ed</w>
ass y</w>
Gr ou
at ures</w>
gi ves</w>
1 7</w>
ti t
B el
sw ed
pol ici
pro spec
off ers</w>
competi tion</w>
oo k</w>
en sure</w>
rul ed</w>
in et</w>
qu ir
b n</w>
hear ing</w>
H un
f ashi
a uc
ic ago</w>
bag hdad</w>
join ed</w>
A P
we ather</w>
g an</w>
mem or
wh il
seem ed</w>
lank a</w>
sh oc
dru gs</w>
c amer
reas on</w>
P ho
fin ally</w>
re comm
win ner</w>
el ,</w>
week .</w>
immedi ately</w>
h its</w>
infl ation</w>
industri al</w>
A g
protest ers</w>
targ et</w>
re p
an ch
O R
v e.</w>
any one</w>
ak ing</w>
fav or
1 ,
mo der
day 's</w>
aci fic</w>
treat ment</w>
alleg ations</w>
ent al</w>
ch em
G ener
open s</w>
Wil liam
ali z
simp ly</w>
w ed
vo ted</w>
sp anish</w>
po sted</w>
s in
di g
P or
ver sion</w>
c ru
e m</w>
Ang eles</w>
1 3
No t</w>
e ,”</w>
curren tly</w>
dispu te</w>
mob ile</w>
prof its</w>
un employment</w>
follow ed</w>
pol ls</w>
ser ved</w>
we ight</w>
ch ester</w>
ci ties</w>
mi xed</w>
intellig ence</w>
n is</w>
n ar
inc .</w>
ant ly</w>
f esti
r a</w>
Mar k</w>
iz e</w>
ab use</w>
ban king</w>
wat ch</w>
prog ress</w>
j ord
r am
corpor ate</w>
ali zed</w>
defic it</w>
Euro pe</w>
ni ght
all ed</w>
f ast</w>
n on
un g</w>
c alifornia</w>
bro ke</w>
hous ing</w>
pati ents</w>
ang hai</w>
fam ili
e ve</w>
li st
deli ver
bo d
fin ished</w>
fi ve-
pro mp
hol ds</w>
it self</w>
cri tici
at e.</w>
k in
j an
al s,</w>
C u
M il
de ep</w>
b ian</w>
see m</w>
po ol</w>
vi c</w>
annivers ary</w>
ev ents</w>
s om
Ch ris
o red</w>
r ang
G O
detail s</w>
de stro
bo t
l ic
compl ain
f la
and -
dam age</w>
lead s</w>
res our
O p
ric h
nor m
that ’s</w>
bo x
Sec ur
th ough
proper ty</w>
dead ly</w>
b our
car rying</w>
reco gni
zimbab we</w>
ant a</w>
v an</w>
ell ed</w>
u l</w>
ne ar
mov ement</w>
i el
Brit ain
atten tion</w>
alleg edly</w>
ex ican</w>
En gl
busin esses</w>
F ir
contro versi
ac t
struc k</w>
num bers</w>
decad es</w>
dis ease</w>
ou t,</w>
rem ained</w>
h ands</w>
ti es.</w>
me an</w>
show ing</w>
sp end</w>
H ol
let ter</w>
es si
ne g
add ress</w>
bang lades
afterno on</w>
ho tel</w>
ath ol
commer cial</w>
g ay</w>
bl ing</w>
pret ty</w>
c up
Tw o</w>
c le</w>
opport unity</w>
des er
me et
M u
No w</w>
sh e
p c</w>
g ,</w>
5 .
eas y</w>
r ou
re al
O ur</w>
ar ab</w>
an ks</w>
M any</w>
boo k
H i
e um</w>
sco w</w>
com for
Americ a</w>
includ es</w>
in spec
suff ered</w>
do g</w>
level s</w>
in su
oper ating</w>
m ir
W i
C B
bo y
great er</w>
bey ond</w>
car s</w>
S o
dec lined</w>
custom ers</w>
fin ish</w>
B en
ear ing</w>
res ,</w>
amb ass
attor ney</w>
res cue</w>
M er
C lin
ic op
ad s</w>
ri c</w>
r ange</w>
co ach
p el
gr ound
appe ar</w>
fif th</w>
activi sts</w>
co .</w>
inj ury</w>
S ar
bel ow</w>
step s</w>
##. ##</w>
w ould
sy ri
S tu
ri d</w>
in .</w>
desig ned</w>
t own
jo b
qu ality</w>
reco very</w>
bomb ing</w>
arg ent
r y
a o</w>
al s.</w>
daugh ter</w>
ed ge</w>
v ili
Oly mpic</w>
R u
m ass
distr ict</w>
Santor um</w>
add ing</w>
mom ent</w>
Cong ress</w>
tu red</w>
C hi
par k</w>
scand al</w>
sha re
d ate</w>
a x
my anmar</w>
on to</w>
associ ation</w>
C alifornia</w>
s wit
per haps</w>
ser ve</w>
t ac
J e
an ci
L ou
confl ict</w>
e en</w>
gre en</w>
K en
success ful</w>
Acc ording</w>
dr am
stat e-
gir l</w>
accoun t</w>
is tic</w>
200 8</w>
li fe
de gre
Car ol
sex ual</w>
egyp t</w>
effec t</w>
em o
z y</w>
tal king</w>
addi tional</w>
up .</w>
pro be</w>
im ag
mo stly</w>
F rom</w>
cer em
malaysi a</w>
sid es</w>
reven ue</w>
set ting</w>
cong res
rejec ted</w>
0 -
v a</w>
I ra
wh er
j ail</w>
b ail
ag g
Democr atic</w>
co st
App le</w>
ed i
7 .
mor tg
## #-
negoti ations</w>
now led
s h</w>
ow ed</w>
V al
death s</w>
appro ved</w>
prov ided</w>
z a</w>
su st
fac ed</w>
tri b
adver tis
continu es</w>
ot a</w>
ell ,</w>
prepa red</w>
pro -
V i
resear chers</w>
st ood</w>
may or</w>
pan el</w>
propos al</w>
ar ,</w>
se es</w>
bu ying</w>
republ ican</w>
leban on</w>
dec is
sur ger
##- ##</w>
hel icop
He al
O hi
Nov ember</w>
at u
mus lim</w>
n av
res sed</w>
tow ards</w>
sou ght</w>
st ore
ac u
Coun ty</w>
g ers</w>
re r</w>
d l
cam p</w>
D is
bo ard
sm all
palest inians</w>
ast ,</w>
regim e</w>
es ,"</w>
shor t
il s</w>
olog ical</w>
achi ev
auth or
be at
M ad
2 4</w>
b ad
That 's</w>
scienti sts</w>
et ro
benef its</w>
ex hi
coll ap
the at
w w
susp ended</w>
certain ly</w>
lead ership</w>
ack nowled
su preme</w>
et .</w>
supp ly</w>
becom ing</w>
Sec ret
happ y</w>
hel ping</w>
pen sion</w>
suggest ed</w>
comple te</w>
CN N
as c
6 .
surve y</w>
ick et</w>
us $</w>
relation ship</w>
ad o</w>
beg inning</w>
own er</w>
B BC</w>
ac tions</w>
D av
im pres
wit n
c k
de plo
ar ies</w>
curren cy</w>
Ch amp
pr acti
li e</w>
air craft</w>
on ed</w>
fe ar</w>
enti ally</w>
prac tic
doc tors</w>
ob jec
ac tor</w>
ati c
cri tical</w>
ad y</w>
go als</w>
appe ars</w>
ag er</w>
lo om
S am
head ed</w>
sty le</w>
writ ten</w>
er ’s</w>
6 0</w>
pl ays</w>
sa v
champ ions</w>
controversi al</w>
bur gh</w>
Ch ris</w>
increas ingly</w>
f air
Syri a</w>
wh om</w>
bar ack</w>
ti es,</w>
he ’s</w>
seas on.</w>
ci vili
k ar
ven ezu
s audi</w>
tol l</w>
off ering</w>
estim ated</w>
or .</w>
B ec
sh anghai</w>
uk ra
shar p
clim ate</w>
E ver
ex erc
ag o.</w>
quar ters</w>
bo di
tradi tional</w>
ti e</w>
w ild
y wood</w>
dis appoin
gu ar
lan gu
cab inet</w>
Cen ter</w>
h en</w>
med ic
prin ci
put ting</w>
Fe bruary</w>
philipp ines</w>
four -
la ws</w>
y ,"</w>
bas ket
s mar
dri ving</w>
hou se
8 .
traff ic</w>
mag az
clos er</w>
“ It’s</w>
own ers</w>
lo an</w>
un it</w>
happ ened</w>
I' ve</w>
on 's</w>
em ent,</w>
recei ve</w>
k o</w>
car ried</w>
pre -
strateg y</w>
can adian</w>
auth ority</w>
defe at</w>
tex as</w>
be ha
be au
over all</w>
extr a</w>
Dec ember</w>
en voy</w>
mis s</w>
spe ed</w>
Al though</w>
w ing</w>
Sen ate</w>
le -
larg ely</w>
Mo st</w>
air lines</w>
comm ents</w>
t y,</w>
j ury</w>
repor ting</w>
##- year-old</w>
a ul
fre ed
de p
Brit ain</w>
leav es</w>
m ass</w>
pp er</w>
star s</w>
cl assi
9 .</w>
sub sid
in n
la h</w>
some times</w>
et ary</w>
8 .</w>
under stand</w>
whil e,</w>
earth quake</w>
res .</w>
est s</w>
ig n
anc e.</w>
Fl orida</w>
niger ia</w>
sh ut
Cen tr
nam es</w>
ag en
il ,</w>
emb assy</w>
em er
responsi ble</w>
p ir
A ir
sch em
see ks</w>
5 .</w>
it es</w>
hol iday</w>
d ated</w>
ric ul
critic ism</w>
fir ms</w>
identi fied</w>
it er
de tained</w>
on ic</w>
previ ously</w>
x i
st ra
un ve
uni ties</w>
enti re</w>
threat ened</w>
sub st
can ’t</w>
j une</w>
C E
through out</w>
Camer on</w>
rec i
es :</w>
do zens</w>
m el
dec ade</w>
S pan
m ach
cr uc
immigr ation</w>
as .</w>
parliam entary</w>
vis iting</w>
commit ted</w>
ar y.</w>
cou ld
C .</w>
lawy ers</w>
alli es</w>
concer ned</w>
car ri
Ging rich</w>
k ers</w>
re ment</w>
Peop le</w>
y m
ther .</w>
fam ous</w>
s tic
row ing</w>
well -
does n’t</w>
gr and
ol o
cri p
cau ght</w>
an 's</w>
he ar</w>
we igh
war d
legisl ation</w>
N E
Ger man</w>
t ren
eng ine
min d</w>
bu y
lim ited</w>
bo dies</w>
D o
wor d</w>
month ,</w>
ext rem
tr ust</w>
re stric
up ,</w>
tran si
diplom atic</w>
report ed.</w>
to m</w>
foo t</w>
decla red</w>
Isra el</w>
ow ,</w>
fight ers</w>
Austr al
Pri me</w>
ar m</w>
ap ped</w>
me ets</w>
br inging</w>
r are</w>
tu al</w>
Ro bert</w>
so vo</w>
dr in
ten nis</w>
N i
sa d</w>
ic ,</w>
Democr ats</w>
protec tion</w>
t v</w>
us ually</w>
polici es</w>
D r.</w>
min e</w>
m as</w>
al i</w>
fel low</w>
B as
crow d</w>
Gener al</w>
marri age</w>
W ashing
hu a</w>
$ 3
v als</w>
el se
fund ing</w>
direc t</w>
strugg ling</w>
reli ef</w>
pak istani</w>
car ry</w>
ter s,</w>
saf e</w>
m ers</w>
um b
er ial</w>
s ong
li v
share hol
k ids</w>
1 1
ac tive</w>
spo t</w>
acc ident</w>
soldi er</w>
dec ide</w>
er ry</w>
re mo
now ,</w>
Ed in
a j
as su
ref used</w>
al ing</w>
sp on
ing :</w>
A ra
wal k</w>
7 -
9 .
practi ce</w>
il ian</w>
K e
sit es</w>
S ti
fra ud</w>
d :</w>
rele as
ir anian</w>
bu t
ch oo
re new
att end</w>
Sep tember</w>
lin ked</w>
4 .</w>
j am
increas ing</w>
ric ane</w>
i es,</w>
coun ty</w>
ni c</w>
fem ale</w>
ad mitted</w>
us .</w>
Mar tin</w>
ed y</w>
popul ation</w>
promis e</w>
bloc k</w>
Com mit
bloo d</w>
In de
t elec
se as</w>
st atis
Fr ance</w>
settle ment</w>
ac adem
op tim
u es</w>
see ing</w>
bl es</w>
was n't</w>
l -
ju ly</w>
tu m
P en
s an</w>
R ang
ep h
an o</w>
" If</w>
3 .</w>
O f</w>
h i</w>
pay ing</w>
w ay,</w>
p sy
head s</w>
explo sion</w>
you 're</w>
c k</w>
poli tic
believ es</w>
s wee
As s
A no
mid -
ko sovo</w>
pl us</w>
pul led</w>
exc ep
ter s.</w>
E U</w>
Govern ment</w>
wor ds</w>
# ,
that .</w>
f low
an s.</w>
I m
end or
fe et</w>
benef it</w>
in quir
adi um</w>
in t</w>
separ ate</w>
ev ening</w>
b ar</w>
gir l
M ac
ac ted</w>
fall ing</w>
J ack
at l
$1 .
dis covered</w>
beha vi
vol un
d utch</w>
all s</w>
pi ece</w>
spo ke</w>
im ple
p ick</w>
er n
it i</w>
passeng ers</w>
I r
ambass ador</w>
com ment</w>
2 1</w>
stre ets</w>
S pe
struc ture</w>
st ake</w>
wr ong</w>
equi p
al o
grou p
um ,</w>
reve aled</w>
democr acy</w>
’ ll</w>
orgi a</w>
bank rup
en forc
clo sing</w>
H er</w>
i es.</w>
te gr
Uni on</w>
mo del</w>
L u
ap prov
D ef
en 's</w>
ci vil
plac es</w>
1 9</w>
c z
vo tes</w>
Oc tober</w>
A R
ad d</w>
ev en
si ze</w>
ach us
bo x</w>
anc ell
reg ard
ros of
Bar ack</w>
t ack
A ri
gre ek</w>
stat ement.</w>
4 0
achus et
origin al</w>
es '</w>
b ought</w>
t aliban</w>
n in
2 2</w>
201 1,</w>
I s</w>
-l ed</w>
di stri
air line</w>
ar ing</w>
ex ac
tre as
tax es</w>
appro ach</w>
ev acu
fall s</w>
g ain</w>
Af ghan</w>
vo ting</w>
de v
law suit</w>
gi c</w>
th s</w>
contribu ted</w>
be ating</w>
st ret
requ est</w>
T el
boo ks</w>
penal ty</w>
gre w</w>
poli tics</w>
hus band</w>
G old
war ns</w>
m ast
ed ing</w>
gi an</w>
reform s</w>
cy cl
b in</w>
we 're</w>
environ mental</w>
sc ale</w>
sharp ly</w>
e "</w>
adv oc
Tex as</w>
wr ong
ri ver</w>
docum ents</w>
web site</w>
gr ade</w>
individ ual</w>
read ing</w>
as tic</w>
pl at
fail ure</w>
cr ude</w>
t 's</w>
al tern
spokes woman</w>
ther e's</w>
commis sion
te sted</w>
stri kes</w>
allow ing</w>
banglades h</w>
em en</w>
record s</w>
l un
comp let
promis ed</w>
retur ns</w>
ex ports</w>
countr y's</w>
ac her</w>
devel op</w>
Ano ther</w>
commun ist</w>
d ol
distri bu
inc ident</w>
mo ves</w>
champion ships</w>
di vision</w>
w ay.</w>
pur su
sec ret</w>
hop ing</w>
S up
stat us</w>
201 0,</w>
athol ic</w>
min ent</w>
oc cup
" He</w>
T or
R ob
regul ar</w>
y :</w>
sof tw
long- term</w>
ob vi
tw ice</w>
200 9</w>
win ter</w>
sp read</w>
B re
fic ation</w>
sh ire</w>
lo y
us ual</w>
Ric hard</w>
anc y</w>
repor ters</w>
squ ad</w>
isc o</w>
star ts</w>
basket ball</w>
is on</w>
miss ile</w>
m e,</w>
ay l
N et
ur al</w>
me ant</w>
auth or</w>
reser ve</w>
s ”</w>
as sets</w>
stop ped</w>
pres ent</w>
in hua</w>
cho ice</w>
I’ ve</w>
pl un
roc k</w>
organ is
bl ast</w>
ar ily</w>
A ug
Isra eli</w>
N .</w>
bas e
? "</w>
s en</w>
po ver
S ince</w>
t ed.</w>
guar an
aff airs</w>
resol ution</w>
ho se</w>
Bo th</w>
ess ed</w>
im prov
cour se,</w>
ol a</w>
s at
con clud
a str
h as
R ec
c e
projec ts</w>
produc t</w>
ric k</w>
high ly</w>
appe al</w>
tem por
condi tion</w>
w illing</w>
th ing
mod ern</w>
them ,</w>
in tegr
h an</w>
mon e
anti c</w>
ch an
ul tim
sur r
on ds</w>
proble m
grad u
invol v
Ara b</w>
s a</w>
with draw
qu o
de tec
sk i</w>
c ross</w>
mor n
fin ding</w>
par is</w>
dra ft</w>
C am
fli ghts</w>
h att
ang eles</w>
meas ure</w>
refer end
accep t</w>
scen e</w>
op h
independ ence</w>
ru g
tai pe
r out
p air</w>
j ack
li ed</w>
2 3</w>
ham as</w>
Twit ter</w>
tin y</w>
ag ricul
Tues day,</w>
t am
a e
Pe ter</w>
suspec ts</w>
s ;</w>
el sea</w>
vic tor
fin e</w>
In v
g ulf</w>
dec line</w>
d on</w>
Coun cil</w>
stri p</w>
requi red</w>
Russi an</w>
s ar
c ard</w>
seas on,</w>
ad ed</w>
con v
' d</w>
develop ing</w>
euro s</w>
civili ans</w>
ni an</w>
es ."</w>
beg ins</w>
a war
J ust</w>
se at</w>
Th en</w>
program s</w>
histor ic</w>
1 00
ser ving</w>
ak er</w>
second -
x im
Ed iting</w>
" ,</w>
R yan</w>
spec ul
T om</w>
y el
sci ence</w>
g ard
M ass
re cover
appro ach
f are</w>
C r
cut ting</w>
p as
cul ture</w>
sh own</w>
q a
vis i
percent .</w>
T i
l uc
cr ack
viol ent</w>
lo ans</w>
cap ital
do zen</w>
inter view
consum ers</w>
s ort</w>
eth nic</w>
happ en
bann ed</w>
hur t</w>
v ely</w>
reach ing</w>
taipe i</w>
z amb
Goog le</w>
produc ed</w>
bri ef
festi val</w>
in e,</w>
presid ent
ho t</w>
tiv ely</w>
po st-
foc used</w>
vill age</w>
In stitu
g ent
sec ut
J on
ativ ely</w>
ab and
GO P</w>
g as
friend ly</w>
cr icket</w>
D en
N ic
as king</w>
vo ic
jord an</w>
peop le,</w>
mo del
reas on
s .
C ha
mo scow</w>
ex ten
consid ering</w>
b ond</w>
for tun
agg res
gin ia</w>
en ter</w>
ag on</w>
bl ack
J ud
tr ue</w>
cre w</w>
T hose</w>
at ,</w>
immedi ate</w>
advant age</w>
y ."</w>
tion ed</w>
T ri
initi al</w>
20 0</w>
se ized</w>
I slam
w er</w>
Par k</w>
um p</w>
trou bled</w>
W all</w>
Secur ity</w>
prof essor</w>
” ,</w>
i P
" There</w>
we ak</w>
dri ver</w>
ret ail</w>
y l
month .</w>
writ er</w>
J ustice</w>
promo te</w>
tri gg
L a
b acks</w>
Engl ish</w>
tr ag
Ger man
Mur r
att acked</w>
s low</w>
bl ue</w>
a g</w>
su s</w>
us ers</w>
fol low</w>
forec ast</w>
s add
c ep
201 2.</w>
f ro
politici ans</w>
susp ici
ti m</w>
201 2,</w>
m ad</w>
ast e</w>
Mi ke</w>
elec t</w>
s ending</w>
vehic le</w>
aw are</w>
tur ning</w>
n as
govern ments</w>
ti ous</w>
ing -
bon ds</w>
break ing</w>
le ts</w>
oc cas
au to</w>
s ?</w>
adv ance</w>
us ion</w>
inter n
Secret ary</w>
peop le
vari ous</w>
ar ab
fac il
gre ece</w>
emb er,</w>
k i
bab y</w>
ici al</w>
ti l
fu tu
? ”</w>
milit ant</w>
bo ys</w>
ath le
ir ing</w>
a be
Mon day,</w>
That ’s</w>
de st
execu tives</w>
sc ore</w>
Sch ool</w>
pro duce</w>
Frid ay,</w>
sk i
" S
kno ws</w>
Des pite</w>
Bra z
i reland</w>
p h</w>
D el
found er</w>
ni ght,</w>
F re
f it</w>
e ted</w>
oo d,</w>
& amp
con tr
conduc t</w>
c it
U p
st one</w>
responsi bility</w>
Lab our</w>
say ,</w>
over seas</w>
Su preme</w>
i i</w>
sp ring</w>
surger y</w>
cruc ial</w>
0 s</w>
hand ed</w>
sp ac
ing er</w>
ac ts</w>
j un
strat e
ret ail
g ood
tr ain
b i</w>
profes sional</w>
Ro yal</w>
apparen tly</w>
invol ving</w>
sh ut</w>
U K
ec tion</w>
b id
him ,</w>
ut ers</w>
op pos
investig ators</w>
ak ed</w>
countr y.</w>
develop ed</w>
ak ers</w>
sw iss</w>
assa ult</w>
k ic
tor ,</w>
n es
ac ting</w>
work .</w>
spe ak</w>
sen si
Par ty</w>
li t</w>
P i
s is</w>
ul ar</w>
2 5
O s
li ght
t elling</w>
journ alists</w>
ail s</w>
secut or</w>
West ern</w>
no t
p ace</w>
p acific</w>
event ually</w>
ap art
Wh it
An drew</w>
sy m
comm ander</w>
a .m.</w>
gam e.</w>
citi zens</w>
t ells</w>
V ic
k ne
wa iting</w>
sent ence</w>
manag ed</w>
ed :</w>
gr an
ent y</w>
cl ashes</w>
O N
B ill</w>
they 're</w>
appro pri
inter ven
org an</w>
M ill
al bu
cle arly</w>
doub t</w>
expec ts</w>
C A
oc cur
refuge es</w>
e ful</w>
ili ties</w>
x inhua</w>
7 .</w>
consu lt
E S
ni ght.</w>
aw ard</w>
six -
“ This</w>
ev in</w>
investig ating</w>
answ er</w>
Pho to
el im
an ke
amer icans</w>
low -
mic hael</w>
vic es</w>
stor ies</w>
e k
writ ing</w>
el y,</w>
push ed</w>
exac tly</w>
emb ly</w>
un likely</w>
z en
cl ash</w>
min im
au stri
w er
ex pan
air e</w>
Ari z
Y et</w>
b es</w>
es cap
ter y</w>
B ow
B rown</w>
off ensive</w>
week end
mit h</w>
necess ary</w>
G ar
insur g
clu b
z ing</w>
cir c
hosp it
Wednes day,</w>
o 's</w>
end ers</w>
wat ch
G M
al a</w>
b acked</w>
U. N.</w>
vis t</w>
t ough
ro ll</w>
n er,</w>
bal ance</w>
J am
softw are</w>
cap tain</w>
fr ustr
system s</w>
go sla
be fore
c eas
all .</w>
oly mpics</w>
H ow
weal th</w>
y iel
6 .</w>
part ner</w>
world 's</w>
al er
land .</w>
ad el
of -
gr y</w>
sm ugg
L aw
loc k</w>
an i</w>
sem i
wat ching</w>
comb at</w>
j ailed</w>
al- qa
E R
Ste ph
i v
you ’re</w>
col um
comp ens
alifor ni
g all
gre en
pri ze</w>
is ing</w>
ther e’s</w>
lear n</w>
bo at</w>
ater al</w>
comple ted</w>
Li b
Y oun
ra ph
stu di
c oo
pow ers</w>
expect ations</w>
dev ast
injur ies</w>
vehic les</w>
tec h</w>
individ u
el ess</w>
sh ad
ic ation</w>
Thurs day,</w>
ear ned</w>
subjec t</w>
re sig
f e</w>
lu x
re vi
resour ces</w>
D un
equip ment</w>
d a</w>
rosof t</w>
egyp tian</w>
fil m
S im
ri vals</w>
con vers
g row</w>
adde d.</w>
ken ya</w>
is n't</w>
ris es</w>
sat ell
H ill
surpris e</w>
m exican</w>
proc e
Tues day.</w>
Wh y</w>
p ounds</w>
er o
tur ns</w>
el se</w>
pic ked</w>
dem ands</w>
r ice</w>
thin king</w>
S mith</w>
yester day</w>
m ates</w>
c .</w>
sud an</w>
Q a
sol id
E m
C el
A ,</w>
Ste ve</w>
cr ashed</w>
deleg ation</w>
m e.</w>
con sist
li ved</w>
sh el
won 't</w>
cor rec
lat er,</w>
im age</w>
est ate</w>
fashi on</w>
olo gi
pres ence</w>
bur g</w>
mo tor
m c
z ,</w>
inter ior</w>
d ings</w>
- to-
conf ident</w>
gir ls</w>
shar p</w>
re ver
oc k
it ation</w>
en ni
cam bodi
chec k</w>
pic ture</w>
inquir y</w>
" They</w>
fe eling</w>
ad ul
Bi g</w>
agen cies</w>
dis aster</w>
a ids</w>
rem aining</w>
cre ating</w>
ed a</w>
f it
Pre mi
m ou
pop e</w>
ati n</w>
ph il
activ ity</w>
ancell or</w>
perf ect</w>
win d</w>
pro secutor</w>
ext ended</w>
base ball</w>
fr anc
Scot t</w>
k ash
consid er
tu g
coun t</w>
influ ence</w>
Gre ece</w>
bos nian</w>
Jo e</w>
percent ,</w>
an t,</w>
as i
effec tive</w>
vo ice</w>
w il
Pal est
veter an</w>
R ed</w>
prov iding</w>
ab sol
tak e
bankrup t
Me an
Af ghanistan</w>
dl rs</w>
att le</w>
T ra
AP )</w>
ey e</w>
bir d</w>
st ands</w>
sec onds</w>
yu gosla
brid ge</w>
def ending</w>
secur e</w>
control led</w>
continu ing</w>
photo graph
prof it
ab le.</w>
mom ent
freed om</w>
appear ance</w>
t y.</w>
part ner
g in</w>
cl usi
s ound</w>
an ia</w>
rec ession</w>
over night</w>
aw a
civil ian</w>
sep tember</w>
pres ent
dang erous</w>
tou ch
exp and</w>
le g</w>
fl orida</w>
fi x
re view
i ther</w>
examp le,</w>
P an
ang er</w>
C aliforni
The y
or ies</w>
m ir</w>
resum e</w>
S he
m ate</w>
bu re
shoo t
c old</w>
cerem ony</w>
k ur
achuset ts</w>
pack age</w>
ev ol
do w</w>
k i</w>
lo ts</w>
w earing</w>
fail ing</w>
M ag
sh ir
bigg er</w>
arg o</w>
ll ,</w>
s atis
sup er</w>
S t.</w>
ex tre
though ,</w>
colle agu
gener ation</w>
O ther</w>
vil le</w>
r ough
Fir st</w>
dec isi
day ’s</w>
Indi a</w>
Ital ian</w>
ti ed</w>
y ards</w>
ass ass
vis its</w>
M y
ren t</w>
typ e</w>
Med ic
" We
2 7</w>
su bur
S ir</w>
euro zone</w>
ans as</w>
o es</w>
ey es</w>
ha ven
g a</w>
e ?</w>
fre qu
environ ment</w>
rec ru
ag ent</w>
rem ember</w>
as k
sco res</w>
do m</w>
res cu
re place</w>
well .</w>
plan es</w>
de but</w>
al co
bos nia</w>
fron t
P ress</w>
famili ar</w>
pi ec
Feder al</w>
it arian</w>
C ur
pul l</w>
ri sts</w>
Russi a</w>
w ave</w>
enter ed</w>
Au th
li qu
ne pal</w>
w ake</w>
mar ked</w>
small er</w>
possi bility</w>
Obam a's</w>
y ard</w>
B ei
congres sional</w>
D ar
brok en</w>
L at
201 0.</w>
Iran ian</w>
suggest s</w>
tem per
F ore
lit er
sc oring</w>
me th
wel come</w>
4 5</w>
li gh
wel com
John son</w>
i ght
democr ats</w>
fu tures</w>
up on</w>
ag ents</w>
dis h</w>
ali ze</w>
h ome
l au
den ies</w>
d y
ther e.</w>
co ff
il ing</w>
hel ps</w>
pre p
th anks</w>
V er
en h
dis rup
are ,</w>
I l
D am
pl ants</w>
head quarters</w>
bl amed</w>
ci a</w>
cri tics</w>
a us
h en
K ar
I ow
enter tain
d s,</w>
spo t
ap ers</w>
speak ing</w>
N H
S E
ble .</w>
pro ve</w>
The ir</w>
2 6</w>
Mon day.</w>
elec tor
con secu
e u
f .</w>
G ra
sho ts</w>
sy mp
m ail</w>
seas on
sum mer
up coming</w>
work ,</w>
bir th</w>
L in
Mc C
referend um</w>
sy l
Gre ek</w>
ad .</w>
D uring</w>
analy st</w>
p ast
cro ati
stri ker</w>
p age</w>
sever e</w>
res id
determin ed</w>
fun c
st un
w is
exhi bi
fin ds</w>
er s'</w>
heal th
adde d:</w>
o dy</w>
in ess</w>
requ ire</w>
be ats</w>
reti red</w>
so ,</w>
te en</w>
D ev
store s</w>
consecu tive</w>
adel phi
bro ther</w>
In ste
H or
diffic ul
del ay</w>
we ’re</w>
dig ital</w>
3 5</w>
ex port</w>
St an
en a</w>
f ly</w>
connec tion</w>
st adium</w>
Grou p</w>
prof ile</w>
s tim
M P
activi ties</w>
ol der</w>
worl d.</w>
pot entially</w>
announc ement</w>
mar i
H um
mortg age</w>
statis tics</w>
p in
ch -
t e,</w>
jud g
targ ets</w>
se ven
journ alist</w>
malaysi an</w>
Wednes day.</w>
sy n
IN G
em an</w>
co ast
beat en</w>
ext end</w>
no te</w>
port ation</w>
qu ick</w>
sing er</w>
cz ech</w>
Centr al</w>
insi sted</w>
Res ear
braz ilian</w>
i op
l ish</w>
em br
201 1.</w>
pre gn
respec t</w>
per man
k -
B row
v ac
ti ght
cul tural</w>
stand ard</w>
re min
At l
rais es</w>
con st
ash ing</w>
rug by</w>
Associ ated</w>
7 0</w>
pe tro
l ay
b on</w>
por tr
aff ected</w>
M is
tiv e,</w>
mus eum</w>
form ed</w>
prison ers</w>
the astern</w>
R ed
Cong res
8 -
manufac turing</w>
int ended</w>
rad i
peop le.</w>
des ign</w>
Af ghan
u tion
enforc ement</w>
re plac
comple x</w>
n i</w>
D istr
survi v
ukra ine</w>
ur g
r on</w>
Thurs day.</w>
so -
wid ely</w>
gather ed</w>
ten sions</w>
b ill
2 8</w>
eff ici
k h
larg er</w>
cont act</w>
half -
Ch icago</w>
al one</w>
Span ish</w>
p aper</w>
tr uck</w>
enter pris
ro yal</w>
pi pel
no ted</w>
A C
(Re porting</w>
Sp ain</w>
n or</w>
n it
ca using</w>
de als</w>
argent ina</w>
\ /
d a
jan uary</w>
reg ist
prec ed
ordin ary</w>
introduc ed</w>
happ en</w>
oc k</w>
lo t
am ing</w>
lin e
j our
ch en</w>
passeng er</w>
tri c</w>
is es</w>
ch rist
may be</w>
lear ned</w>
As sad</w>
classi c</w>
roc ket</w>
ris ks</w>
well ,</w>
immigr ants</w>
Con serv
Afr ic
pro minent</w>
it em
s cr
sh ore</w>
critici zed</w>
territ ory</w>
constitu tional</w>
pled ged</w>
fl ag
electr ic
op ing</w>
Heal th</w>
i ans</w>
ar -
Inter net</w>
report edly</w>
Wil li
S ci
head ing</w>
Uni vers
ho p</w>
Man chester</w>
main tain</w>
chang ing</w>
un less</w>
it or
ol i
al ong
" You</w>
pol l
oc key</w>
n u
audi ence</w>
particul ar</w>
C I
ter ri
b and
R ick</w>
on ing</w>
A BC</w>
A P</w>
fiel der</w>
Jan .</w>
Frid ay.</w>
Afr ican</w>
teach ers</w>
Aug ust</w>
L ev
gu id
el .</w>
er al</w>
strugg le</w>
em ph
P ow
he at</w>
commit ment</w>
s an
j et</w>
H om
determin e</w>
meas u
intern al</w>
trans fer</w>
li ft</w>
f ed</w>
al ban
stand ards</w>
cu ba</w>
you th</w>
" I'm</w>
hom e.</w>
C lar
Ever y
av ing</w>
mil e</w>
complet ely</w>
Chi ef</w>
no .</w>
possi bly</w>
ish ment</w>
allow s</w>
vi et</w>
cas e,</w>
Off ice</w>
be t</w>
8 0</w>
e es</w>
scre en</w>
i b
Mus lim</w>
ver pool</w>
test ing</w>
par ti
ei gh
exper t</w>
re sist
C he
H e's</w>
pay ments</w>
neg ative</w>
al u
w ood
bir th
x ,</w>
ch a
br and</w>
direc tly</w>
Willi am</w>
at .</w>
jap an</w>
emb er.</w>
challeng es</w>
ain e</w>
se in</w>
approv al</w>
ed -
acti vist</w>
elim in
h ran</w>
ha r</w>
pat ri
li sted</w>
far mers</w>
us al
produc er</w>
" But</w>
down .</w>
equ ity</w>
mat eri
h all</w>
seri ously</w>
stim ul
v owed</w>
de d.</w>
mur d
ha z
deli ver</w>
flo or</w>
sen al</w>
Bro ok
d ul
N Y
venezu ela</w>
k s,</w>
b low</w>
or ado</w>
s cot
ob ser
neigh b
condem ned</w>
t ed,</w>
hous es</w>
s port</w>
mar ried</w>
h k</w>
norm al</w>
min ing</w>
g ained</w>
retur ning</w>
alli ance</w>
gol f</w>
lif e.</w>
tour ism</w>
cover age</w>
sugg est</w>
Sund ay,</w>
lin ks</w>
yu an</w>
dis missed</w>
S ur
near by</w>
say s,</w>
ar af
H en
ail ing</w>
ti tu
l eng
ess ing</w>
helicop ter</w>
mon etary</w>
at ed.</w>
accoun ts</w>
tre ated</w>
u al
shi ft</w>
Mic hi
on going</w>
’ d</w>
ar ity</w>
Obam a’s</w>
shi f
l ing
$ 4
sw im
g old
tou rists</w>
con ver
sho p</w>
araf at</w>
Edin burgh</w>
ed ,"</w>
acc us
Clin ton</w>
en i
ther e
S il
ter ing</w>
am p</w>
sol ution</w>
William s</w>
it ely</w>
doc tor</w>
suff ering</w>
cle an</w>
clai ming</w>
Op en</w>
Ro ber
peri o
nov ember</w>
ag end
um .</w>
y le</w>
witn esses</w>
fac tory</w>
B rad
m on</w>
ra il
am az
S hi
push ing</w>
k ing
sadd am</w>
un able</w>
thre ats</w>
rel atively</w>
ar i</w>
six th</w>
M organ</w>
f illed</w>
st y</w>
cent ur
H el
mat ches</w>
exist ing</w>
streng th</w>
heav ily</w>
ou ts</w>
ad ing</w>
syri a</w>
circ um
ro g
ar y-
op in
s on.</w>
t ment</w>
med al</w>
Ch ur
je wish</w>
V en
re put
C al
cor e</w>
l ying</w>
sh ould
magaz ine</w>
crack down</w>
oppon ents</w>
Ang el
the -
langu age</w>
R a
D ay</w>
li ghts</w>
P enn
ar tic
restaur ant</w>
“ If</w>
ge orgia</w>
I M
hur ricane</w>
s ell
r ound
becom es</w>
reduc ed</w>
emer ged</w>
l ou
com mon
oper ate</w>
cl er
g ro
g or
ill a</w>
d avid</w>
Jap anese</w>
pres ented</w>
p aul</w>
ic .</w>
Ph il
Re uters</w>
cap ac
th ing.</w>
c a</w>
favor ite</w>
am s</w>
Fe b.</w>
lim it</w>
wor ried</w>
spi red</w>
th western</w>
wr ite</w>
Sp ain
Indi an</w>
Thom as</w>
fe wer</w>
w ill
prepar ing</w>
pr us</w>
de par
establ ished</w>
wat ched</w>
suppor ted</w>
h ill
sk y</w>
mil iti
attor ne
suppor ting</w>
decis ions</w>
por ted</w>
squ are</w>
treat y</w>
CB S</w>
appoin ted</w>
O ver</w>
St ar
I I
supp lies</w>
lin e.</w>
far m</w>
ou l</w>
ch ances</w>
co ordin
increas es</w>
si on,</w>
succ e
sit ting</w>
gu err
re ality</w>
Ger many</w>
ten s</w>
phys ical</w>
percent age</w>
soci ety</w>
as ks</w>
tradi tion</w>
mon d</w>
Ab out</w>
vic tim</w>
Di rec
a wards</w>
and an</w>
volun te
Go v.</w>
trou ble</w>
s s</w>
arr ang
J ones</w>
sur ge</w>
al le
Rang ers</w>
Jap an</w>
v ul
proc ed
g oods</w>
2 9</w>
se l</w>
impro ved</w>
il .</w>
Ther e's</w>
z es</w>
lead ed</w>
collec tion</w>
S .
po p</w>
confl ic
cho ic
degre e</w>
sp lit</w>
speci fic</w>
e ”</w>
Bl ack
h an
au t
jum p</w>
tel eph
ho tel
Yor k
usti n</w>
year 's</w>
ru b
oc tober</w>
B us
c ell
was n’t</w>
reti rement</w>
adv anced</w>
p c
G ri
S ud
ard ,</w>
com par
cat eg
em y</w>
kash mir</w>
pu ts</w>
eas ily</w>
a ther
( AP)</w>
n an
now .</w>
trans port</w>
el and</w>
A ir</w>
advertis ing</w>
assist ant</w>
T V
regul ators</w>
self .</w>
bar ak</w>
ent agon</w>
b o</w>
S pr
Romne y’s</w>
welcom ed</w>
dis ci
st aff
gam e,</w>
Hi gh</w>
ani el</w>
Premi er</w>
dic t
K o
hal t</w>
ath let
b ay</w>
simp le</w>
a c</w>
hosp ital
so- called</w>
bl u
niger ian</w>
A h
is n’t</w>
vis ited</w>
nav y</w>
K ing</w>
ass embly</w>
v ast</w>
fl at</w>
ar a</w>
W is
S her
Mean while,</w>
del ayed</w>
re moved</w>
gg ed</w>
dispu ted</w>
th row</w>
dru g
d res
jap anese</w>
le y,</w>
over e
sched u
dri ven</w>
anti ci
ing ,"</w>
nor thwest</w>
her e.</w>
expen sive</w>
beau ti
Mo ham
uni ons</w>
le 's</w>
d ict</w>
V o
Li ber
bot tom</w>
S oci
ayl or</w>
R ep
un certain
plo t</w>
strong er</w>
sem i-
constitu tion</w>
wh el
man .</w>
ed itor</w>
go al
j ur
con sequ
Ser vice</w>
f ish
B ir
Ken ne
00 ,000</w>
represent atives</w>
c ell</w>
bail out</w>
separ ati
ab le,</w>
alli ed</w>
colom bia</w>
ar .</w>
defe ated</w>
ic h
we ar</w>
re fin
deliver ed</w>
conduc ted</w>
lad im
again .</w>
5 ,000</w>
f ile</w>
threat ening</w>
vis itors</w>
-r ound</w>
argu ed</w>
out put</w>
vol um
im mer
ste pped</w>
pho to</w>
purch ase</w>
di ag
no ti
u ment</w>
def end</w>
too .</w>
all y.</w>
W om
low est</w>
Fl or
r aid</w>
N av
ast s</w>
chem ical</w>
new ly</w>
wal ked</w>
m its</w>
es .”</w>
rou te</w>
bos s</w>
associ ated</w>
S har
p leaded</w>
st ages</w>
c iting</w>
Sup er</w>
bra in</w>
thir d-
techn ical</w>
effec ts</w>
B ul
strate gic</w>
prov ides</w>
disci pl
ro bert</w>
h ang
" the</w>
M s</w>
Vir ginia</w>
pl enty</w>
ou s,</w>
cont est</w>
N F
leban ese</w>
as on</w>
y our
Com mun
resol ve</w>
B or
pass ing</w>
countr y,</w>
y .”</w>
def en
di alo
te acher</w>
p ath</w>
H al
auc tion</w>
comb ined</w>
op posed</w>
my ster
multi ple</w>
J un
ounc ed</w>
mis sion
pol and</w>
bankrupt cy</w>
arri ves</w>
- and-
sh r
dis eas
C le
inf ra
st ag
cli ents</w>
satell ite</w>
dar k</w>
hit ting</w>
record ed</w>
inv est</w>
sou theast</w>
prog res
erg y</w>
def end
r ush
commun ications</w>
es ,”</w>
prep are</w>
k it
expan sion</w>
Li ke</w>
em is
y ,”</w>
Ale x</w>
h ow
in e.</w>
f ish</w>
dis play</w>
sha red</w>
psy ch
tain s</w>
fi res</w>
J .</w>
swed en</w>
vir us</w>
st ol
W ar</w>
T im</w>
au ster
Associ ation</w>
f an</w>
fe atures</w>
re d.</w>
em ent
ph ones</w>
main land</w>
choo se</w>
tri es</w>
teleph one</w>
9 0</w>
I ts</w>
w ise</w>
lin k</w>
ladim ir</w>
dead line</w>
quo ted</w>
know led
th en,</w>
gu y</w>
Ar my</w>
extrem ely</w>
ti ght</w>
L ord</w>
secur ities</w>
th is
re mark
h ang</w>
pil ot</w>
D .
br an
heal thy</w>
9 -
on ’s</w>
ab le
b low
T reas
subst anti
feder ation</w>
vent ure</w>
contrac ts</w>
" a</w>
m ol
r ural</w>
t ons</w>
fl ying</w>
charac ter</w>
200 8,</w>
Ohi o</w>
D er
posi tions</w>
hatt an</w>
aug ust</w>
Ch elsea</w>
&amp ;</w>
clo ses</w>
T )</w>
coun ter</w>
Mid dle</w>
month s.</w>
tug al</w>
prov id
fac t,</w>
worl d,</w>
d av
ke l</w>
ap s</w>
ul a</w>
ep is
Bec ause</w>
Sti ll,</w>
L E
propos als</w>
ec ts</w>
D r
en ’s</w>
M exico</w>
fe els</w>
Ira q
om ic</w>
ple as
ann ounce</w>
thre w</w>
si t</w>
Commit tee</w>
st ers</w>
es cal
reas ons</w>
ear li
li b
mat erial</w>
O '
des per
de pres
s overe
interest s</w>
ag o
form s</w>
fal len</w>
investig ate</w>
50 ,000</w>
po sts</w>
mon g</w>
Carol ina</w>
J im</w>
compan y,</w>
we b</w>
f ant
jud ges</w>
they ’re</w>
b acking</w>
en th
Pak istan</w>
J ourn
clos ely</w>
interest ed</w>
cy prus</w>
th ro
schem e</w>
Sep t.</w>
Un der</w>
world wide</w>
re y</w>
s ong</w>
leg ally</w>
H ear
re move</w>
li z
Qu e
S mi
tur n
is tic
t sun
usal em</w>
resp ond</w>
tom or
re signed</w>
eth iop
post pon
n ature</w>
ste el</w>
Ale x
bo tt
s in</w>
la m</w>
( CNN
us tic
milli on.</w>
speak er</w>
gu ards</w>
repor t.</w>
w ild</w>
gun men</w>
break s</w>
si on.</w>
se ats</w>
exerc ise</w>
l es
(CNN )</w>
Jan u
compl ic
E con
con go</w>
great est</w>
f ought</w>
Romne y,</w>
dri vers</w>
over whel
ha ul</w>
pu tin</w>
o x
be an</w>
ap ping</w>
fac tor
op tions</w>
en try</w>
op e</w>
## s</w>
elec tric</w>
build ings</w>
Oc t.</w>
shor tly</w>
h ad
exhibi tion</w>
Th ree</w>
ac re</w>
hus sein</w>
expl ain</w>
fe ature</w>
b ed
S en.</w>
human itarian</w>
h oo
H amp
g y
D aily</w>
billi on
attemp ts</w>
pres su
disc ussi
promis es</w>
differ ence</w>
c e,</w>
day s,</w>
ug anda</w>
2 3
mad rid</w>
legisl ative</w>
addi tion</w>
T y
An dy</w>
nation wide</w>
purch as
mon it
t ’s</w>
es pre
mar ine</w>
pro ved</w>
youn ger</w>
g .</w>
quali fi
ko zy</w>
abor tion</w>
K el
B en</w>
shor t-
fund am
ING TO
stu dies</w>
meet ings</w>
S w
ch ris
Fore ign</w>
Distr ict</w>
or s,</w>
Nov .</w>
strong ly</w>
ste ady</w>
loc ked</w>
Wh at
govern ing</w>
ut ely</w>
A D
S us
shi p.</w>
bomb ings</w>
be gun</w>
th ing,</w>
tax pay
a than</w>
on e
ther e,</w>
no tic
ha w
antici p
AS H
is m
im pl
2 ,
ant s,</w>
b rown</w>
accep ted</w>
colleagu es</w>
6 0
C amp
t ask</w>
her e,</w>
L uc
sup posed</w>
D ou
Com mission</w>
s es
par tis
is lands</w>
tion ally</w>
back .</w>
Tel eg
mon y</w>
r w
og raph
im posed</w>
Satur day,</w>
draw n</w>
b is
um s</w>
G am
distr ic
A sh
in sid
tou ch</w>
hop ed</w>
r ati
ble ,</w>
bas is</w>
N ig
wid espre
emerg ing</w>
wor ries</w>
se eded</w>
dem anded</w>
electric ity</w>
A mong</w>
n ice</w>
u. s.
repe at
f ill</w>
ic king</w>
G et
ser b</w>
C ri
add res
mark eting</w>
Flor id
C lu
B ank
shop ping</w>
recei ving</w>
diag no
her o
tic ket</w>
M exic
ord s</w>
. A.</w>
iz ing</w>
gener ally</w>
acknowled ged</w>
offic es</w>
presid ency</w>
poin ted</w>
ro y
diplom ats</w>
countr y’s</w>
fil ms</w>
201 2
conv inc
compe te</w>
C oll
sl ide</w>
2 4
Col le
im ages</w>
bul gar
sep t.</w>
s now</w>
H igh
bri ef</w>
month s,</w>
di vid
l augh
Austral ian</w>
sig ning</w>
in spired</w>
bas ic</w>
domin ated</w>
cust ody</w>
to day.</w>
er up
streng then</w>
re in
an gry</w>
h ill</w>
gu ys</w>
adelphi a</w>
on ia</w>
Bar cl
to t
" In</w>
wh it
keep s</w>
v acc
F am
“ the</w>
trad ers</w>
Romne y's</w>
Holl ywood</w>
A M
de ten
c ents</w>
ab b
renew ed</w>
dec ember</w>
adv ice</w>
hon or</w>
grow n</w>
div ided</w>
rad ical</w>
Murr ay</w>
ter -
W ill</w>
S ol
em or
opin ion</w>
dem anding</w>
an ’s</w>
o v</w>
con spir
part ners</w>
li ms</w>
S t</w>
200 9,</w>
sep h</w>
eas ier</w>
s ac
milli on,</w>
re vis
set tle</w>
“ There</w>
dr ama</w>
could n't</w>
k s.</w>
foot ball
pl ed</w>
B oo
r o</w>
join ing</w>
u k</w>
presid ent,</w>
tr il
offici ally</w>
p ed
st able</w>
coun ts</w>
th or
ick en</w>
M el
$ 5
s man</w>
pover ty</w>
is lat
clu bs</w>
wal king</w>
co al</w>
bil ateral</w>
R y
du ty</w>
ti ger</w>
sc ru
w av
on ym
neighbor hood</w>
s ons</w>
emph as
200 7</w>
g ary</w>
en ough
t ail</w>
telec om
act ress</w>
de d,</w>
lo ved</w>
ish es</w>
swed ish</w>
assist ance</w>
um ents</w>
tack le</w>
bom bs</w>
aff ect</w>
D etro
ap e</w>
wit ness</w>
“ He</w>
wif e,</w>
Le e</w>
b ig
in nov
op tion</w>
bur n</w>
involv ement</w>
shar ing</w>
ku wait</w>
att ended</w>
W in
competi tive</w>
am ,</w>
quali fying</w>
lux ury</w>
cle an
vul ner
atic ally</w>
work er</w>
organiz ations</w>
W ASH
WASH INGTO
/ /
fer red</w>
coun c
ide ast</w>
s y</w>
broad cast</w>
sen ator</w>
mo di
H aw
re marks</w>
deep ly</w>
public ly</w>
br ings</w>
D o</w>
tt p
u pris
re d,</w>
com mod
O sc
k ick</w>
Bo b</w>
ay 's</w>
num ber
at ed,</w>
fir m
R ad
be ach</w>
cap tured</w>
def ensive</w>
h ttp
fav our
re l</w>
tec h
play off</w>
bo ston</w>
promp ted</w>
awar ded</w>
ad ju
id ,</w>
I S
unve iled</w>
Be fore</w>
bloc ked</w>
c able</w>
examp le</w>
: //
ec ting</w>
Penn syl
Ar m
is ol
tour ist</w>
str ing</w>
per su
y "</w>
altern ative</w>
question ed</w>
fr u
establ ish</w>
Institu te</w>
Ar gent
ph y</w>
ac ed</w>
lin e,</w>
ag ers</w>
fu r</w>
le gi
targ eted</w>
v oc
elector al</w>
S qu
Ar ab
dram atic</w>
bl ame</w>
d um
out break</w>
Gre ec
widespre ad</w>
A pr
Jer sey</w>
R am
pres er
tu re,</w>
a f</w>
Oly mp
K evin</w>
O k
conven tion</w>
W el
Isra el
prin t</w>
along side</w>
ap p</w>
Sund ay.</w>
Char les</w>
min ority</w>
ri l</w>
no vel
or s.</w>
wat er
e )</w>
jum ped</w>
We b</w>
## #
b un
l ers</w>
B ud
Ther e’s</w>
eng lish</w>
Fin ancial</w>
Th ough</w>
road s</w>
tam il</w>
T om
circum st
attemp ted</w>
youn g
G ir
char ity</w>
Fo x</w>
A p
N AS
lo g
advis er</w>
wat ers</w>
l ay</w>
P aul
self ,</w>
abe th</w>
kid n
se vent
http ://
Gre en</w>
CE O</w>
celebr ate</w>
ed ."</w>
to b
ab s
Al l
19 5
won ’t</w>
forc ing</w>
fav or</w>
e c</w>
take over</w>
d es</w>
pipel ine</w>
sen .</w>
ar di
b are
estim ates</w>
peace ful</w>
perman ent</w>
J ord
photo s</w>
nomin ation</w>
Def ense</w>
shi p,</w>
res ort</w>
moun tain</w>
cont ent</w>
Champ ion
3 1</w>
anim al</w>
regist ered</w>
fe es</w>
C ali
ben ch
si ght</w>
person nel</w>
bl air</w>
th ou
Gre en
up set</w>
Ital y</w>
Republ ic
b arg
al ia</w>
E v
rough ly</w>
For mer</w>
dam aged</w>
ir ish</w>
mo re.</w>
chie f
aler t</w>
inc id
N ick</w>
el son</w>
ch en
ad es</w>
econom y.</w>
ch ain</w>
strugg led</w>
co c
“ You</w>
Up dated</w>
man i
Kore a</w>
enjo y</w>
ri val
down ,</w>
arti st</w>
Tr ans
T S
item s</w>
Bl ack</w>
e gg
New s
CN N</w>
zer land</w>
vir tu
Bro ad
out look</w>
Steph en</w>
hol e</w>
acqu isi
sh u
resig nation</w>
fe atu
Chin a,</w>
s and
dis crimin
no -
clo sure</w>
er s’</w>
t emp
Chris tian</w>
n d</w>
in aug
ou s.</w>
I sl
im ports</w>
wor se</w>
dec lar
compan y's</w>
en z
P ic
institu tions</w>
def ended</w>
On ly</w>
in ing</w>
## #.#</w>
B I</w>
tri bu
ai m</w>
st ability</w>
ac qui
keep er</w>
gg ing</w>
ech an
b ills</w>
#, ###.##</w>
go tt
la hom
experi enced</w>
r ating</w>
pit ch</w>
nor theast</w>
ver ,</w>
w .
grou p,</w>
bro ad</w>
ch icago</w>
h ockey</w>
moder ate</w>
T H
Off ic
g al
carri er</w>
ther lands</w>
est ed</w>
C O
m ideast</w>
at ely,</w>
s at</w>
pol ish</w>
pass es</w>
vol ati
st al
all ing</w>
rejec ts</w>
hom e,</w>
apart ment</w>
el er
e ze</w>
K ing
p ain</w>
athlet es</w>
comfor table</w>
Gl as
destro yed</w>
g e,</w>
I P
de tain
appropri ate</w>
web sit
mo tiv
hand ling</w>
ho l</w>
conf id
s pl
T aliban</w>
off s</w>
specul ation</w>
D od
in no
top -
v es.</w>
P it
in struc
it able</w>
Gr and</w>
st o
Rep .</w>
F A</w>
ann y</w>
sou thwest</w>
dro ve</w>
dialo gue</w>
ord on</w>
boo k,</w>
spe ech
g ar</w>
es "</w>
encour age</w>
fr anch
as ser
centr e</w>
tempor ary</w>
repeat edly</w>
H K
S ome
rac ing</w>
op her</w>
Mat t</w>
F ar
mid d
invest or</w>
win ds</w>
anci ent</w>
figh ter</w>
ma xim
ful l-
Gre at</w>
fr ag
cas e.</w>
spar ked</w>
stre am</w>
kno c
at es,</w>
S wed
tan z
again ,</w>
mo on</w>
as ide</w>
7 5</w>
Mar y
n y
h oll
partner ship</w>
wor ry</w>
deal ing</w>
Au gu
re placed</w>
mo squ
es ’</w>
anke es</w>
T ro
off .</w>
N ations</w>
Stat es,</w>
st om
th ony</w>
cou p</w>
Ph one</w>
du b
Afr ica</w>
abo ard</w>
ing ."</w>
ex it</w>
com e
ca uc
T er
sec tion</w>
day s.</w>
lif ted</w>
Par liam
V ol
eli gi
Z immer
ve z</w>
opport unities</w>
B et
g ate</w>
b es
On ce</w>
milli on
1 ,000</w>
wh ol
government .</w>
what ever</w>
Y our</w>
arch it
enth usi
shi ite</w>
auster ity</w>
ww w.
leg islat
dang er</w>
a ide</w>
perform ed</w>
ch ancellor</w>
form ation</w>
remo te</w>
rap h</w>
individu als</w>
rec all</w>
under standing</w>
Mass achusetts</w>
fe bruary</w>
room s</w>
sch ol
isra el
initi ally</w>
capac ity</w>
Lond on,</w>
impro ving</w>
elec tion.</w>
surr ounding</w>
H all</w>
and .</w>
ol ine</w>
ni e</w>
contro vers
ing ham</w>
pro p
3 00</w>
m ale</w>
g ang</w>
un usual</w>
form al</w>
L am
S om
arri ve</w>
plac e.</w>
announc es</w>
sharehol ders</w>
Pu bl
fu n</w>
er ce</w>
ph arm
d i</w>
cot t</w>
an ked</w>
indic ated</w>
floo d</w>
( R
smar t
j usti
k en</w>
j uni
be .</w>
mis sil
Pr ince</w>
conclud ed</w>
law ,</w>
re store</w>
ap ril</w>
laun ches</w>
st ations</w>
pay ment</w>
extr a
ab led</w>
absol utely</w>
H ur
d ance</w>
r um
t on.</w>
m cc
main ly</w>
would n't</w>
ann ing</w>
10 -
ab bed</w>
discus sed</w>
w is</w>
w ra
ah u</w>
Jud ge</w>
down town</w>
gran ted</w>
Colle ge</w>
Bri an</w>
cre di
ag ement</w>
B loom
restric tions</w>
broad cast
manufac tur
w o</w>
sav ings</w>
am ond</w>
son 's</w>
right -
pe ti
neighbor ing</w>
ser bia</w>
az i</w>
con centr
v ows</w>
aut onom
artic le</w>
H ome</w>
diplom at</w>
re gre
pa per
o il
-l ong</w>
ton y</w>
p es</w>
facil ity</w>
al ist
E r
e ;</w>
sh ed</w>
lif e,</w>
arre sts</w>
ai ms</w>
apparen t</w>
achi eve</w>
ant an
cat ch</w>
H ong</w>
Chin a's</w>
cel ona</w>
acc id
Hum an</w>
G ame</w>
Bo ston</w>
An n
min or</w>
ast ro
compens ation</w>
manag ing</w>
ma z
“ But</w>
arab ia</w>
chan nel</w>
week ly</w>
children ,</w>
refuge e</w>
h at
am o</w>
T ony</w>
a per
S oc
cle ared</w>
ak s</w>
complain ts</w>
ha iti</w>
kne e</w>
mean ing</w>
L et
market .</w>
tic ally</w>
c atholic</w>
pic tures</w>
,00 0.</w>
Inv est
charac ter
F ol
z i
rec k
A th
$ 1</w>
bri ght</w>
jer usalem</w>
represent ative</w>
Christ mas</w>
sust ain
col leg
z er</w>
Wi th
- off</w>
B est</w>
inj uring</w>
mist ak
Youn g</w>
ol s</w>
bel ong
world ’s</w>
Wis con
t ank
sc ra
T ot
b ac
acc ur
streng th
r ail</w>
ap ol
ri ot</w>
d s.</w>
cas ual
qu it</w>
Pu blic</w>
Ira q</w>
sam e-
S P
istr y</w>
predic ted</w>
vic e-
prospec t</w>
mid fielder</w>
trib un
Ma j
st an</w>
re covered</w>
be ,</w>
B ay</w>
respond ed</w>
ma h
any ahu</w>
$ 6
fl u
S N
re v
reput ation</w>
lin ing</w>
##- year</w>
guaran te
1 /
kill er</w>
acc o</w>
per form</w>
n one</w>
for um</w>
inter im</w>
T al
de ter
Ho sp
mo tor</w>
coll abor
re action</w>
in jec
too ,</w>
ex t</w>
ti st</w>
in i</w>
her self</w>
def ender</w>
S ing
K im</w>
own s</w>
occur red</w>
republ icans</w>
invest ments</w>
stat ements</w>
stri king</w>
all as</w>
pc t</w>
on ics</w>
F ri
a x</w>
al-qa ida</w>
g an
St ar</w>
commit te
wel fare</w>
pol lu
O r</w>
to day,</w>
ur s</w>
sevent h</w>
em ail</w>
land ’s</w>
p ick
r ide</w>
program me</w>
ic ate</w>
enc ing</w>
“ They</w>
de struc
ho stage</w>
E ric</w>
mo sp
li min
ght -
S A
on z
ur ban</w>
“ I’m</w>
fin ed</w>
pre ven
ai g</w>
we 've</w>
ber y</w>
GM T</w>
ac tors</w>
cl es</w>
row s</w>
le agu
explo ded</w>
deten tion</w>
S co
pati ent</w>
ri ots</w>
reven ues</w>
withdraw al</w>
Cap ital</w>
uni vers
ab road</w>
commission er</w>
jud icial</w>
cor ner</w>
ren ce</w>
sid el
end ,</w>
zamb ia</w>
e ating</w>
vis ions</w>
ear n</w>
19 4
incre di
f ishing</w>
stre ak</w>
R el
v es
are .</w>
The at
k n
bure au</w>
.com .</w>
eng ine</w>
form ally</w>
collap se</w>
employe e</w>
F il
w age</w>
war t</w>
d oping</w>
agend a</w>
van ia</w>
mus ical</w>
counter part</w>
co very</w>
emb arr
e at</w>
conc ep
pend ent</w>
analy sis</w>
defin itely</w>
8 0
war m</w>
Yor k,</w>
p ion
long time</w>
comm and
it ary</w>
di ver
cros s
th is,</w>
government ,</w>
sol id</w>
de ,</w>
lank an</w>
c e.</w>
an t.</w>
Fr ank
prov inc
o is</w>
su its</w>
to ber
dre am</w>
M an</w>
“ We
su n</w>
adop ted</w>
watch dog</w>
ri t</w>
ass ess
Nor thern</w>
acc eler
Sep t
deleg ates</w>
ath ens</w>
pr ince</w>
qui et</w>
manag ers</w>
rem emb
knowled ge</w>
electr onic</w>
acc ord</w>
d ney</w>
oc ean</w>
st a</w>
def ence</w>
N ow,</w>
consu l
colom bian</w>
b c</w>
no tes</w>
children .</w>
H e’s</w>
tic kets</w>
ide as</w>
F u
suggest ing</w>
repor ter</w>
minist er,</w>
reduc tion</w>
E N
thin ks</w>
uni que</w>
nomin ee</w>
n ur
l aid</w>
pos ing</w>
app reci
partis an</w>
ly -
B ush</w>
fal se</w>
L ad
know ,</w>
w ine</w>
c argo</w>
jer sey</w>
m echan
l us
NE W</w>
tren d</w>
“ a</w>
ultim ately</w>
v es,</w>
n .
Po st</w>
Fe bru
" When</w>
surpris ed</w>
os en</w>
loc ated</w>
cru ise</w>
b ond
i a,</w>
Kore an</w>
ant s.</w>
anim als</w>
En ergy</w>
C re
kill ings</w>
inv ited</w>
do .</w>
d or
threat ens</w>
ing ton</w>
de dic
s cri
Washing ton,</w>
ne ,</w>
Isl amic</w>
terror ists</w>
assa ul
in k
deli ber
sol ar</w>
s i</w>
memb ership</w>
Dec .</w>
suff ici
ur ging</w>
schedu le</w>
agricul ture</w>
aw ay.</w>
pre limin
de vice</w>
aff ir
fac ilities</w>
O ’
back ,</w>
F ound
Asi an</w>
clo th
sid e,</w>
W ood
ef f</w>
g en</w>
2 1
n er.</w>
C enter
hor se</w>
Bei jing</w>
o o</w>
al ger
Satur day.</w>
tri um
re- election</w>
div or
Wh o</w>
pan ic</w>
kur dish</w>
F la
I R
l ,</w>
gr ant</w>
de part
cour ts</w>
tril lion</w>
fa ith</w>
Y e
exc ell
S pec
to ,</w>
v ital</w>
C red
spok en</w>
p ound</w>
organiz ed</w>
T our</w>
ass er</w>
emo tional</w>
mic ro
ann an</w>
a ult</w>
wh o
v et
ar ound
land ing</w>
iz ation</w>
high way</w>
movi es</w>
us sel
Ju li
rat ings</w>
gott en</w>
liber al</w>
l am
treas ury</w>
aff ili
argu ment</w>
ch osen</w>
mo re,</w>
concer t</w>
identi fy</w>
h air</w>
con fer
Sou thern</w>
dr ag
albu m</w>
promis ing</w>
I C
10 .
B ru
sud den
as ion</w>
st ayed</w>
cover ing</w>
team .</w>
Austr ali
C as
rel atives</w>
bom ber</w>
Qu een</w>
success fully</w>
on- dollar</w>
cambodi a</w>
f ounded</w>
2 6
c ited</w>
interest ing</w>
direc ted</w>
aggres sive</w>
vis ion
ren d
oo t
m att
Resear ch</w>
aff ord</w>
hi red</w>
d al
rel ess</w>
ch ron
N AT
G ard
D ie
it s.</w>
Oly mpics</w>
( and</w>
2 7
3 2</w>
N ev
wond er
t i</w>
my self</w>
fre ed</w>
( 0
Oc tober
it a</w>
s now
Brook ly
t led</w>
ati can</w>
es )</w>
ca uses</w>
ro ll
tex t</w>
repres ents</w>
coff ee</w>
t ari
D re
pu s</w>
ne ither</w>
bud get
reduc ing</w>
qu e
El ec
HK T)</w>
sensi tive</w>
billi ons</w>
pr oud</w>
mer ger</w>
K y
sw ing</w>
enti rely</w>
mar ath
h a</w>
import ance</w>
a :</w>
uc ks</w>
under -
nation 's</w>
trad ed</w>
$ 2.
-b acked</w>
p ical</w>
it ."</w>
dra ws</w>
piec es</w>
Bro ther
pe t</w>
win ners</w>
signific antly</w>
g lo
sch e</w>
M oun
loc ation</w>
Palest inian</w>
E d</w>
stol en</w>
N ation
ur ge</w>
cont em
ro l</w>
l es,</w>
200 8.</w>
commer ce</w>
bu ff
im ble
A L
mic rosoft</w>
l ending</w>
do ors</w>
bi o
poin ts,</w>
p act</w>
de vices</w>
in tim
dar fur</w>
tim es,</w>
inten si
repres ent</w>
por tion</w>
ti ans</w>
appe als</w>
C i
tal ked</w>
separati st</w>
stro ke</w>
speci fic
ir a</w>
y n</w>
N BC</w>
sp y</w>
system .</w>
rac es</w>
lic en
mcc ain</w>
Inste ad,</w>
G al
tsun ami</w>
al ism</w>
G ary</w>
swe pt</w>
w ounding</w>
st abil
Ariz ona</w>
Col um
v in
Ir ish</w>
hol id
infra structure</w>
cal m</w>
co ol
el der
go v.</w>
ch av
E very</w>
requi res</w>
fe ared</w>
ast ers</w>
lear ning</w>
ev alu
le e</w>
ai red</w>
alco hol</w>
Ac adem
A l</w>
W ol
cal cul
! "</w>
bare ly</w>
re struc
occas ion
ou red</w>
sugg es
month ly</w>
croati a</w>
201 3</w>
Mi ami</w>
S audi</w>
prospec ts</w>
argu e</w>
bus y</w>
v y</w>
ali ve</w>
lim its</w>
et ers</w>
Sand y</w>
wor n</w>
traff icking</w>
un its</w>
uni versi
ti s</w>
memor ial</w>
ou sted</w>
j ets</w>
mess ages</w>
h id
stat e.</w>
with draw</w>
fl ed</w>
ro d
embarr ass
off -
gas oline</w>
ent re
draw ing</w>
en tr
same- sex</w>
ol as</w>
An der
to x
v ard</w>
olog ist</w>
il ton</w>
s ad
al es</w>
differ ences</w>
secret ary-
ist an,</w>
mom ents</w>
lahom a</w>
pr ay
J ack</w>
An ton
se ed</w>
n ative</w>
ra w
## ##s</w>
ment s.</w>
fun eral</w>
mi x
del ays</w>
keep ers</w>
G il
up s</w>
dist ance</w>
L ar
sup ports</w>
on s,</w>
Sand us
F er
B id
Ste ven</w>
c in
gu ang
comm unities</w>
un preced
testi mony</w>
at mosp
G ulf</w>
h in
ga p</w>
tu re.</w>
is her</w>
til ity</w>
gr ounds</w>
S a
lik es</w>
j ustic
k e,</w>
enterpris es</w>
ig nor
r amp
ach ed</w>
car ds</w>
fo rest</w>
team ,</w>
el an</w>
t une</w>
land mark</w>
prelimin ary</w>
aliz ation</w>
tor .</w>
theat er</w>
Par is</w>
Ac t</w>
Obam a,</w>
Br id
it ,"</w>
Treas ury</w>
w aste</w>
F al
bar rel</w>
Co ast</w>
do gs</w>
sist er</w>
happ ens</w>
Dam asc
i Phone</w>
out come</w>
complain t</w>
er son</w>
produc ers</w>
ry sl
es sive</w>
str ang
effec tively</w>
comm and</w>
7 0
scienti fic</w>
qu een</w>
as ka</w>
k ins</w>
M rs</w>
Li verpool</w>
200 6</w>
fa ther,</w>
( D
S av
poin t,</w>
entertain ment</w>
tor n</w>
R us
busin ess.</w>
Ad ministr
unk now
z bol
Ch ild
vi an</w>
profes sion
imple ment
reser ves</w>
jo hn
Os bor
Pl ay
M ul
wer en
fiel ds</w>
at es.</w>
Fr ank</w>
in nings</w>
ill as</w>
war r
ven ue</w>
l atin</w>
minim um</w>
accus ations</w>
antan amo</w>
E C
camer a</w>
2 8
cor respond
Iow a</w>
hard er</w>
legi tim
cris is.</w>
th o
say .</w>
loc k
celebr ated</w>
stat e,</w>
sle ep
pled ge</w>
ain ,</w>
bar ri
epis o
we gian</w>
on au
Pol i
mo ther
it an</w>
tiv e.</w>
adul ts</w>
W ind
V eg
moment um</w>
oo d.</w>
co de</w>
b ail</w>
por tugal</w>
monit oring</w>
clusi ve</w>
an onym
part ly</w>
b ord
gold en</w>
al is
bal lot</w>
inten se</w>
sett led</w>
typ ically</w>
state- run</w>
regul ations</w>
m p</w>
at titu
Teleg raph</w>
H I
te hran</w>
R og
mod est</w>
ag e
mp tion</w>
j i</w>
ful ,</w>
con sci
ak h
J im
chav ez</w>
shut tle</w>
represent ing</w>
discussi ons</w>
roman ia</w>
W .</w>
An aly
T ig
p raised</w>
fin dings</w>
isl am
controvers y</w>
weal thy</w>
din ner</w>
decis ion
in ary</w>
f ail</w>
bench mark</w>
Michi gan</w>
politici an</w>
chec k
h er.</w>
arti sts</w>
L it
year ’s</w>
com edy</w>
avi ation</w>
quarter back</w>
hand le</w>
O per
po c
ag enc
f a</w>
cap able</w>
for war
N B
transi tion</w>
s ke
perform ing</w>
law .</w>
W he
bur y</w>
st res
bal lo
gam es.</w>
V an</w>
in s
hill ary</w>
Britain 's</w>
ho sti
t we
h .</w>
our s</w>
Br y
cre ation</w>
A maz
enjo yed</w>
rol led</w>
Col orado</w>
t end</w>
S ain
shoo t</w>
b ay
obser vers</w>
ang el
hun t</w>
enter ing</w>
two- day</w>
man n</w>
citi zen
Off ici
le y
be ar</w>
for -
Mic hel
T ru
Vic tor
bur ied</w>
L oc
"We 're</w>
recomm end
th rown</w>
A re</w>
inc enti
-r un
m l
tob acco</w>
n ba</w>
An thony</w>
200 9.</w>
mari ju
stic k</w>
secretary- general</w>
S ,</w>
sal v
s wi
" A</w>
po t</w>
k in</w>
mon s</w>
dro ps</w>
u pper</w>
E liz
net works</w>
found ation</w>
s port
k ind
gun s</w>
pre ne
inv ent
birth day</w>
yugosla via</w>
atur ing</w>
tru th</w>
f ts</w>
r ough</w>
fir ing</w>
car bon</w>
J ul
tre at</w>
2 2
L ong</w>
nes ota</w>
f ted</w>
swit zerland</w>
regul atory</w>
canc eled</w>
I reland</w>
D aniel</w>
produc ing</w>
S um
mem ory</w>
s enti
ex po
am end
L eg
sid e.</w>
elec tion,</w>
comm ent.</w>
( M
Ber n
f low</w>
organiz ers</w>
bloc k
b ell</w>
p ac
perf ec
Har ry</w>
bo om
a is
fund ed</w>
shoc k</w>
g ross</w>
ad ap
do d
acc using</w>
br illi
h man</w>
C ab
( the</w>
suspici on</w>
v s.</w>
bi e</w>
gl ass</w>
at r
p s,</w>
Re g
syri an</w>
im possible</w>
D r</w>
drin king</w>
ri ght,</w>
app ly</w>
econom y,</w>
initi ative</w>
b ound</w>
pat ter
beauti ful</w>
g ren
r allied</w>
uncertain ty</w>
b a
dou ble
compan y’s</w>
gi um</w>
mat ch
fi es</w>
tr ack
phi c</w>
eigh th</w>
cros s-
Ad am</w>
comp re
C li
at ar</w>
m our
air o</w>
Hou ston</w>
nor way</w>
cy cle</w>
E astern</w>
stret ch</w>
estim ate</w>
survi ved</w>
re la
g are
Franc isco</w>
p -
s elected</w>
fe el
V ill
excep t</w>
M ir
Egyp t</w>
employ ed</w>
F our</w>
hospit als</w>
cast le</w>
: 30</w>
fin ancing</w>
off ,</w>
system ,</w>
ji ang</w>
hn ya</w>
super vis
col on
wil liam
hear t
V ide
tribun al</w>
wid er</w>
N as
Ch ic
resist ance</w>
so viet</w>
I’ d</w>
A 's</w>
st ress</w>
od d</w>
ex press</w>
man 's</w>
hard ly</w>
explo si
u li
market ,</w>
ic s,</w>
fla g</w>
en e</w>
S hel
G all
D al
E :</w>
C ru
ceas e-
st aged</w>
H ere</w>
gu ard
bu c
spec tac
es ;</w>
aw n</w>
or ation</w>
NAT O</w>
r d</w>
kic ked</w>
el ite</w>
exper im
agre ements</w>
f ab
com promise</w>
Iran 's</w>
K ir
F esti
Austral ia</w>
paren t</w>
sol ve</w>
k ick
gather ing</w>
mon itor</w>
austri a</w>
v ladimir</w>
morn ing,</w>
C atholic</w>
mo tion</w>
i .</w>
stu ff
reco ver</w>
Com p
ar c
mass acre</w>
p acked</w>
lo ad</w>
bur gh
f aster</w>
err a</w>
t ar</w>
am m
p ath
ed "</w>
it s,</w>
att acking</w>
is si
discus sion</w>
s kills</w>
L yn
connec ted</w>
com pos
in spir
str ict</w>
F ul
plat form</w>
D ow
reach es</w>
chec hnya</w>
nar row
deli very</w>
il a</w>
G ood
campaig n.</w>
Can adian</w>
0 s,</w>
soci et
over ,</w>
confir m</w>
gi ants</w>
campaig n
agre es</w>
atl anta</w>
F oot
pri or</w>
veter ans</w>
pp ers</w>
j an</w>
stoc k
Barcl ays</w>
l ake</w>
W ell,</w>
n urs
S ever
Bu t,</w>
m oud</w>
arg est</w>
prosecu tion</w>
il ly</w>
st uck</w>
her o</w>
Jon athan</w>
peace keeping</w>
i est</w>
floo ds</w>
he l</w>
bl ess</w>
custom er</w>
A ff
n es</w>
val ent</w>
g ang
F BI</w>
juni or</w>
L O
mo ham
it :</w>
O ut
sun g</w>
ment s,</w>
ne u
exc e
unpreced ented</w>
dis covery</w>
pursu e</w>
F ed</w>
y ang</w>
er ly</w>
man age</w>
For ce</w>
le d.</w>
smugg ling</w>
newsp apers</w>
c ool</w>
L .</w>
of i</w>
ne therlands</w>
regi ons</w>
law maker</w>
S in
we ’ve</w>
th rowing</w>
surviv ors</w>
bow l</w>
re iter
ell a</w>
tro pical</w>
Y OR
p ers</w>
g ore</w>
m t</w>
ch air</w>
sil ver</w>
no vel</w>
war ming</w>
C y
bis hop</w>
L ind
do ,</w>
wed ding</w>
bo w</w>
$ 7
ak ar
fair ly</w>
mun ici
est ,</w>
condem ns</w>
) ;</w>
model s</w>
Stat es.</w>
floo ding</w>
convers ation</w>
Sch ool
fa ther
lef t-
H ill</w>
is a</w>
3 3</w>
im pose</w>
te a</w>
f ai
th ri
ing "</w>
ho sts</w>
Europe ,</w>
men tion</w>
Wal es</w>
win dow</w>
sp aren
and y</w>
Tim es
tur mo
ra v
h ind
Con nec
doc h</w>
go ,</w>
ne d.</w>
ret re
3 6</w>
G ames</w>
An dre
or al</w>
l .</w>
christ mas</w>
l i</w>
mil an</w>
ch ose</w>
tu gu
le ans</w>
p ar</w>
tru ly</w>
e x</w>
desig n
spec ies</w>
st an
atl antic</w>
I' d</w>
telecom mun
plun ged</w>
b ai
You Tu
or m
b ,</w>
fat al</w>
B S</w>
trigg ered</w>
trav el
id .</w>
revol ution
T enn
4 00</w>
f ate</w>
si m
des ire</w>
-l argest</w>
mone y.</w>
sudden ly</w>
P et
assass ination</w>
ann a</w>
Egyp tian</w>
Conserv ative</w>
stu ff</w>
fe e</w>
ac compl
iv ory</w>
song s</w>
mat h</w>
neighb ors</w>
trav eling</w>
A F
Lou is</w>
pos es</w>
un k</w>
s election</w>
P acific</w>
l ap
swee ping</w>
exp anding</w>
I D
New t</w>
ear th</w>
att led</w>
Li by
ch ile</w>
gen e
k ansas</w>
tr ained</w>
compan y.</w>
D an</w>
fin anci
entre prene
con test
J eff
mis sions</w>
ab ul</w>
missil es</w>
hop eful</w>
mo re
S to
L au
p entagon</w>
NF L</w>
ten sion</w>
rysl er</w>
el d</w>
direc tion</w>
2 9
senti ment</w>
oper ator</w>
nam ese</w>
Jack son</w>
iP ad</w>
F ur
G D
pri x</w>
be ef</w>
be st-
lus con
impres sive</w>
aren 't</w>
O ld</w>
S tor
C .
aband oned</w>
zbol lah</w>
trans portation</w>
other .</w>
refer ring</w>
extre me</w>
c ow
met al</w>
sa ving</w>
you ,</w>
ti er</w>
mand ate</w>
ver dict</w>
4 8</w>
campaig n,</w>
Pol ic
ent ly,</w>
er :</w>
a pe
s son</w>
in ev
s ounds</w>
z e
j ames</w>
c ash
priv acy</w>
eng aged</w>
prov in
on s.</w>
poin ts.</w>
ic als</w>
per u</w>
z ai</w>
re sign</w>
sa ved</w>
sour c
pled ges</w>
origin ally</w>
challeng ing</w>
br on
buy ers</w>
j ones</w>
sus pension</w>
ou tr
employ ers</w>
y ”</w>
tribu te</w>
. m
ur ani
mi x</w>
f ing
d il
R on</w>
head .</w>
campaig ns</w>
accoun ting</w>
su e</w>
i tion</w>
marath on</w>
doc ument</w>
w ol
sust ained</w>
postpon ed</w>
fi x</w>
d ir
“ In</w>
exp anded</w>
K u
a por
ess ential</w>
dist inc
y ota</w>
dro pping</w>
over haul</w>
th a</w>
po ol
jam in</w>
at a</w>
Le ban
mo ther,</w>
F ord</w>
swim ming</w>
ken yan</w>
william s</w>
chi p</w>
contro ls</w>
cont ain</w>
come back</w>
le d,</w>
sk ir
ic on</w>
an king</w>
in str
m es</w>
edi tion</w>
intro duce</w>
Dav is</w>
Chur ch</w>
rec alled</w>
Mar t
a po
expl ained</w>
issi pp
targ eting</w>
At tor
chang e.</w>
pil ots</w>
provin cial</w>
electr onics</w>
ap art</w>
abs ence</w>
le ’s</w>
- of-
pres sed</w>
T op</w>
regard ing</w>
H O
other wise</w>
fiel d,</w>
jour ney</w>
s ab
improv ement</w>
obvi ously</w>
nin th</w>
demonstr ators</w>
pu mp
ici ans</w>
desig ner</w>
v it
Soc ial</w>
r ab
revol ution</w>
n ad
C ounc
bla sts</w>
fir st
sear ching</w>
at tered</w>
E D
land ed</w>
G ood</w>
Pak istani</w>
as yl
insu l
trib al</w>
vari ety</w>
multi -
ts in</w>
st ance</w>
town s</w>
J ason</w>
lif ting</w>
' "</w>
sti c</w>
dis put
tal ent</w>
Je wish</w>
ser bs</w>
mac ed
Afghan istan
ic h,</w>
dis closed</w>
k el
escap e</w>
man chester</w>
tor s,</w>
scre en
teen ager</w>
W rit
famil y,</w>
mou th</w>
3 ,
P .</w>
O ver
pri ority</w>
neigh bour
holl ywood</w>
i o
con sen
dav is</w>
identi ty</w>
equ al</w>
$ 3.
histor y.</w>
k ra
cur b</w>
tre es</w>
air ,</w>
land 's</w>
g ation</w>
con solid
e ye
cu ban</w>
Le agu
Su per
busin ess,</w>
Detro it</w>
ff s</w>
li br
To day</w>
tech ni
B ol
au ght</w>
er ies</w>
E duc
in ated</w>
ed .”</w>
don ors</w>
coast al</w>
la st-
studi o</w>
pol ling</w>
un rest</w>
sl augh
cl usion</w>
ac compan
ke en</w>
dr ink</w>
Min istry</w>
R on
high ligh
i gh</w>
as pec
Ag ency</w>
f ,</w>
G lobal</w>
M exican</w>
M ah
optim istic</w>
Champ ions</w>
ne sty</w>
guaran tee</w>
stimul us</w>
smo o
tran sparen
e fully</w>
exten sion</w>
h o</w>
war -
regul ation</w>
re conc
ob lig
Res er
t ast
bo eing</w>
sha pe</w>
j .</w>
y asser</w>
brief ly</w>
s per
3 4</w>
k ni
yel tsin</w>
1 1,</w>
il legally</w>
b ah
M ary</w>
ab duc
wond er</w>
9 9</w>
in sist
bur ning</w>
elder ly</w>
tre e</w>
ist ,</w>
h ut
guerr illas</w>
mar gin
con dol
imble don</w>
C an</w>
comb ination</w>
particip ate</w>
NH S</w>
Get ty</w>
fe aturing</w>
fac tor</w>
att end
refl ect</w>
business man</w>
Bl ue</w>
repe ated</w>
et te</w>
Ri ghts</w>
met ers</w>
tr ail
practic es</w>
I an</w>
f m</w>
writ ers</w>
cer ti
promo ting</w>
ol ds</w>
T un
has n't</w>
n ick
b ans</w>
at ul
s ends</w>
institu te</w>
rap id
E ast
volum e</w>
ro t
B ut
L a</w>
20 ,</w>
repres ented</w>
Offici als</w>
bloo dy</w>
upris ing</w>
devast ating</w>
Sim on</w>
ho u</w>
" What</w>
off shore</w>
N ad
! ”</w>
jo se</w>
ing .”</w>
rol ling</w>
si zed</w>
th an-
sol u
every body</w>
ad equ
ab e</w>
N BC
m aster</w>
war m
th om
photo gra
Gri ff
war nings</w>
rac ial</w>
obvi ous</w>
fr ank
As ked</w>
be half</w>
## ,
3 7</w>
lad y</w>
high- profile</w>
ev id
attrac t</w>
behavi or</w>
ob serv
h u</w>
detail ed</w>
r ank
l ec
aff ord
st aying</w>
econom ist</w>
under stood</w>
p y
im m
ex posed</w>
batt le
bar rel
D or
N ,</w>
substanti al</w>
stor ms</w>
squ e
Carol in
C at
econom ies</w>
smo king</w>
bad ly</w>
hel p
uc ky</w>
fle w</w>
hund red</w>
g il
C ,</w>
nic ks</w>
- old</w>
f bi</w>
rele v
play .</w>
cent .</w>
futu re.</w>
cease- fire</w>
C ity,</w>
actu al</w>
em en
s ni
lin er</w>
E T
pres um
vulner able</w>
ad mits</w>
3 5
t :</w>
. ##</w>
comm ent
mar gin</w>
,00 0,</w>
maxim um</w>
ing ,”</w>
j az
lo aded</w>
tugu ese</w>
mar y</w>
administr ative</w>
d ry</w>
$ 8
agricul tural</w>
cycl ing</w>
H ay
Asi a</w>
st um
writ es</w>
f id
b and,</w>
would n’t</w>
n ell</w>
land sc
d anc
Ear lier</w>
) :</w>
reb ound</w>
reve al</w>
repor t,</w>
ve get
valu es</w>
four th-
broad er</w>
boy cott</w>
fore ig
old est</w>
bre ast</w>
k az
S uch</w>
Pak istan
newsp aper
bloc ks</w>
gen oc
imag ine</w>
in son</w>
ca p</w>
bro thers</w>
haven 't</w>
sym bol
sh oul
lo ses</w>
fre e-
ri f
t ,"</w>
sen s
yel low</w>
coc aine</w>
over .</w>
Don ald</w>
let ters</w>
bit ter</w>
ra f</w>
2 ,000</w>
tr o</w>
n ish</w>
eas ing</w>
could n’t</w>
ach es</w>
tion ing</w>
ar ts</w>
Al so</w>
WASHINGTO N</w>
matt ers</w>
inf ec
rang ers</w>
M un
ad ult</w>
ep tion</w>
show ,</w>
con gr
shad ow</w>
il le</w>
ig no
argent ine</w>
and o</w>
son ’s</w>
et s,</w>
vo ter</w>
t ent
b ath
ac ing</w>
sur ing</w>
ac le</w>
fi erce</w>
ch am
quali fied</w>
co ck
U R
surve ill
L ow
charac ters</w>
bor row
5 5</w>
no bel</w>
sp end
extra ordinary</w>
Mat the
austri an</w>
Auth orities</w>
cre ative</w>
po is
laun ching</w>
wel comes</w>
May or</w>
hol y</w>
port fol
.co .
en -
three- day</w>
ch ann
o sc
compu ters</w>
virtu ally</w>
Por t
show .</w>
direc tors</w>
cop e</w>
4 4</w>
inform ed</w>
inter cep
Thom p
mor oc
conserv atives</w>
mor al</w>
ap ologi
uc t
are a.</w>
lead er
Vir g
jo bless</w>
def ends</w>
en rich
featu red</w>
ed ged</w>
ici an</w>
ner v
ar k</w>
medic ine</w>
num erous</w>
sli pped</w>
.. .
ple a</w>
crow n</w>
" And</w>
Sever al</w>
Bus iness</w>
Med ical</w>
( 2
por t,</w>
Lond on.</w>
testi fied</w>
deplo y
government 's</w>
am e
Al an</w>
us e.</w>
3 8</w>
sh ops</w>
i um</w>
ol d,</w>
Publ ished</w>
on ey</w>
sud anese</w>
Per haps</w>
y er</w>
mar king</w>
oc ol
o s,</w>
b row
recomm ended</w>
mus lims</w>
O x
M iss
St and
materi als</w>
plo t
ro ok
Gi ants</w>
ab les</w>
W all
me at</w>
subsid i
encour aged</w>
nor theastern</w>
nar row</w>
hard -
Ro s
Bow l</w>
roc kets</w>
follow s</w>
T aylor</w>
m ut
low ing</w>
at s,</w>
argu ing</w>
as set</w>
h ond
cap it
in ner</w>
p es
ag es.</w>
si vely</w>
franc isco</w>
bel gian</w>
T erry</w>
volati le</w>
semi finals</w>
gu antanamo</w>
arri val</w>
Democr at</w>
J P
pro per</w>
qualifi er</w>
spi rit</w>
C iti
4 7</w>
fac ts</w>
compe ting</w>
tit les</w>
it .”</w>
insi sts</w>
ran ks</w>
M .</w>
bor rowing</w>
y ?</w>
as ing</w>
tol er
b ag</w>
tr ick
le um</w>
ic s.</w>
d ress</w>
D .</w>
week s.</w>
st ressed</w>
emis sions</w>
astr onau
th is.</w>
dul lah</w>
compl ained</w>
ob tained</w>
gard en</w>
h ire</w>
sof t</w>
Islam ist</w>
politic ally</w>
B ag
d ates</w>
week s,</w>
Il lin
s mil
rel uct
Can ada</w>
t ank</w>
abb as</w>
Ch an
B eng
inaug ur
en orm
go .</w>
bloo d
t es
academ ic</w>
mariju ana</w>
or 's</w>
F un
go w</w>
pe ak</w>
form ula</w>
10 ,000</w>
depar ture</w>
suff er</w>
qu est</w>
threat en</w>
May be</w>
i z</w>
akar ta</w>
gun man</w>
w ast
custom s</w>
proce ed
fail s</w>
Ph illi
question ing</w>
optim ism</w>
hor ri
hand ,</w>
er o</w>
cr ack</w>
urani um</w>
le an
rem ain
m ud
cu it</w>
hol es</w>
I' ll</w>
ex changes</w>
R O
sub sequ
wro te.</w>
Or gan
o tic</w>
l es.</w>
a ,"</w>
Lib ya</w>
T ec
200 5</w>
R en
tr ail</w>
ed ,”</w>
sl um
industri es</w>
Commit te
restruc turing</w>
som alia</w>
h l</w>
Bo e
bel ar
Ad di
boo sted</w>
6 5</w>
telecommun ications</w>
sc ar
H ist
rail way</w>
pol itan</w>
b c
ti le</w>
ann e</w>
acc uses</w>
turmo il</w>
peace keepers</w>
mac ao</w>
health care</w>
" My</w>
b ars</w>
tain ing</w>
O w
lat er.</w>
techn olog
e ased</w>
ph ase</w>
g ad
tic ut</w>
mach ine</w>
un clear</w>
im prison
was ,</w>
negoti ate</w>
ili p</w>
state- owned</w>
noti ce</w>
indic ted</w>
reco gn
b y,</w>
L as</w>
at em
mu tual</w>
lab or
Chin a’s</w>
b its</w>
double -
t y-
curren cies</w>
sent ences</w>
two- year</w>
presid ents</w>
per c
ir on</w>
h iring</w>
eni x</w>
ang ered</w>
insurg ents</w>
ther ap
other ,</w>
o se
tri als</w>
off en
J es
equi valent</w>
k a
quarter ,</w>
ag es,</w>
Eliz abeth</w>
pow er.</w>
P A
tai wan
Pennsyl vania</w>
clim bed</w>
Te am</w>
plac e,</w>
interven tion</w>
no t,</w>
sen ators</w>
ex tradition</w>
ic ks</w>
sp ill</w>
B ob
MP s</w>
room ,</w>
fra ud
K ent
Is land</w>
comp on
ris on</w>
A .
st s,</w>
famil y.</w>
cerem on
a ides</w>
Mus eum</w>
Li fe</w>
“ When</w>
them e</w>
ser bian</w>
al an</w>
amoun ts</w>
pro stitu
pro hi
lef t,</w>
Qa eda</w>
Co ach</w>
mar tin</w>
cam pus</w>
hol ders</w>
ci gare
to tal
amp a</w>
Ex ecu
collec ted</w>
pal ace</w>
Pat rick</w>
Ass ad
mast ers</w>
ten ham</w>
. ’</w>
compre h
acqui red</w>
scr am
ber to</w>
at or,</w>
quarter -
un t</w>
school ,</w>
H a
ussel s</w>
so red</w>
necess arily</w>
our sel
Jo seph</w>
x .</w>
Al ab
down s</w>
n -
acqu es</w>
off set</w>
H aving</w>
pl astic</w>
Tur key</w>
ber lin</w>
t end
viet namese</w>
neighbor h
im port</w>
D O
seven -
militi a</w>
pe l</w>
offic e.</w>
refer red</w>
viol ations</w>
ke y
fac tors</w>
gram s</w>
territ or
ish ,</w>
dis abled</w>
performan ces</w>
pl ing</w>
in s,</w>
encour aging</w>
to .</w>
inc umb
adv ent
Y es,</w>
We b
200 7,</w>
Ro d
Le ad
sh e's</w>
gu ests</w>
chris tian</w>
Tim e</w>
mosqu e</w>
are n</w>
W oods</w>
che str
Academ y</w>
m s,</w>
venezu elan</w>
resul ted</w>
“ S
ha iled</w>
K ansas</w>
w to</w>
ra rely</w>
hun ting</w>
att ending</w>
n arr
12 -
ch il
cap ture</w>
ira c</w>
hun ger</w>
v in</w>
r y,</w>
w ,</w>
one- day</w>
add ic
C ro
pow ell</w>
am ent</w>
liqu id
pos session</w>
excell ent</w>
c ells</w>
deplo yed</w>
ris en</w>
el y.</w>
Yor k.</w>
h ack
J eff</w>
ar senal</w>
pl um
r ush</w>
10 ,</w>
ex plan
attemp ting</w>
M as
Virg ini
tough er</w>
tab ly</w>
Pro secu
5 00
oppon ent</w>
lun ch</w>
enn y</w>
autonom ous</w>
slo v
Lin col
rescu ed</w>
par king</w>
your self</w>
b und
w ai
tim es.</w>
su ed</w>
over come</w>
rang ing</w>
F D
w a</w>
seas ons</w>
aff air</w>
pion e
car ib
Econ om
pow ered</w>
den y</w>
nav al</w>
B on
minut es.</w>
hand ful</w>
inc idents</w>
k ing,</w>
ga ther</w>
som ali</w>
so .</w>
ra ft</w>
Atl antic</w>
shar on</w>
congr atul
Wh ere</w>
u el</w>
blo c</w>
cou ples</w>
Nav y</w>
T ory</w>
sec re
slow ly</w>
on er</w>
fle xi
confir ms</w>
jo ko
Tec hn
se ize</w>
typ es</w>
no tor
c ann
E L
1 :
smo ke</w>
blo g</w>
Mar i
tor ture</w>
you .</w>
consist ent</w>
batt les</w>
fil es</w>
me ter</w>
bur ned</w>
ut sche</w>
convic tion</w>
ful .</w>
Clu b</w>
adde d,</w>
s /
et own</w>
u ph
arg uments</w>
st akes</w>
mor s</w>
tru ce</w>
swee p</w>
a ho
ver .</w>
g e.</w>
ven ess</w>
econom ists</w>
achiev ed</w>
carib bean</w>
20 00
tanz ania</w>
K h
re vel
H an
ho stages</w>
gu ide</w>
th u
cros sing</w>
out standing</w>
Journ al</w>
supp li
" Our</w>
pl c</w>
ceas e
de pos
20 -
protec ting</w>
u z
scen es</w>
author ized</w>
billi on.</w>
hou se,</w>
es ”</w>
. '</w>
dy nam
Fr an
shi pping</w>
3 0,</w>
bel gium</w>
Can ad
regul arly</w>
U ta
Sw iss</w>
pollu tion</w>
pat rol</w>
ev a</w>
cau tious</w>
luscon i</w>
fant as
Spe aking</w>
sk in</w>
mast er
restaur ants</w>
su gar</w>
bran ch</w>
telec om</w>
dr ought</w>
doub ts</w>
secu red</w>
9 0
A y
stat e's</w>
im f</w>
R I
bulgar ia</w>
ethiop ia</w>
box ing</w>
pain t
ous ly,</w>
h edge</w>
h ate</w>
ch irac</w>
ri ght.</w>
olog ists</w>
con front
op ec</w>
sign al</w>
Col om
ill ness</w>
recogni ze</w>
Mur doch</w>
Al i</w>
ple ased</w>
gi ft</w>
U. S.
Pro f
H y
Th ir
cr ush
teen age</w>
rel ative</w>
M en
tot ally</w>
docum entary</w>
at i</w>
rem ents</w>
af p</w>
ambi tious</w>
sle ep</w>
ar iz
H is
ell ec
pul ling</w>
lim it
wav es</w>
# n
Ar senal</w>
ag an</w>
desper ate</w>
billi on,</w>
ra m</w>
far -
Ste ven
sing les</w>
Man hattan</w>
J ac
g ates</w>
k e.</w>
fil ing</w>
conspir acy</w>
recover ing</w>
crow ded</w>
coun t
knoc ked</w>
fire fighters</w>
what 's</w>
Pu tin</w>
a e</w>
Americ a,</w>
tho do
chief s</w>
be er</w>
Go d</w>
x on</w>
temper atures</w>
um -
ti al</w>
dedic ated</w>
har raf</w>
D N
morn ing.</w>
cent ers</w>
scen ari
reb ounds</w>
4 2</w>
surveill ance</w>
her it
ro ots</w>
bu t,</w>
200 4</w>
ug andan</w>
chec hen</w>
B lu
Stre et,</w>
are a,</w>
inst all
M I
view ed</w>
e ag
genoc ide</w>
sa il
ro man</w>
asyl um</w>
L akers</w>
midd le-
cle ar
engine ering</w>
ro y</w>
ali ties</w>
gen u
emp ty</w>
de vic
toge ther.</w>
view ers</w>
M ili
ha bit
B ah
U N</w>
posi tion.</w>
U l
countr y
h acking</w>
ful l
explosi ves</w>
p ending</w>
et s.</w>
Bo ard</w>
cont ain
De part
OR E:</w>
B ang
ro me</w>
Tur kish</w>
gam es,</w>
dou bled</w>
gu it
belie f</w>
histor ical</w>
un changed</w>
appl ic
S af
jack son</w>
M P</w>
B O
mone y,</w>
at omic</w>
eligi ble</w>
air ways</w>
12 .
g est
Pres id
ear ning</w>
speak s</w>
smar t</w>
grou p.</w>
Ser vices</w>
Re uter
Pen n</w>
corpor ation</w>
f ake</w>
vol can
inst ance,</w>
occup ied</w>
bur st</w>
influ ential</w>
Hen ry</w>
Inde ed,</w>
tr e</w>
char les</w>
expl ain
dis s
exc it
unknow n</w>
ri e</w>
no t.</w>
es a</w>
D ur
distribu tion</w>
s ars</w>
j akarta</w>
p per
far ,</w>
G en
ard o</w>
foc using</w>
ph on
co s</w>
b ak
k er
4 5
in mates</w>
v ar
fast -
aw ay,</w>
consequ ences</w>
symp tom
pro of</w>
rejec t</w>
pregn ant</w>
weak er</w>
ine j
acqu ire</w>
d anish</w>
fast est</w>
mur der
est -
remark able</w>
d ating</w>
inc ess</w>
room .</w>
sar kozy</w>
inv asion</w>
gi e</w>
Mic rosoft</w>
k er,</w>
acquisi tion</w>
po ised</w>
p ays</w>
quarter ly</w>
moun ting</w>
guid el
Si x</w>
p ack</w>
m all</w>
cr ashes</w>
establ ishment</w>
r ounds</w>
d am</w>
C ir
know ing</w>
cre te</w>
( £
aw i</w>
Californi a,</w>
surpris ing</w>
p tion</w>
n ess,</w>
death .</w>
ace u
over -
poin t.</w>
casual ties</w>
E ach</w>
u tility</w>
pre dec
five- year</w>
## #.
" As</w>
Syri a,</w>
t ops</w>
ang ola</w>
sur plus</w>
ab ilities</w>
mil k</w>
celebr ity</w>
K ur
B ab
H op
main tained</w>
m s.</w>
air .</w>
for get</w>
al ex
ske p
mo tors</w>
Bas har</w>
ach ,</w>
suffici ent</w>
scienti st</w>
tiv ity</w>
polic emen</w>
fin ishing</w>
ex emp
E mp
rac e.</w>
aliz ing</w>
O li
In c
Kenne dy</w>
et t</w>
mad inej
war n</w>
journ al</w>
et ta</w>
1 1.
dam ages</w>
pl ain
Al len</w>
mon t</w>
jo ins</w>
deser t</w>
nomin ated</w>
An y</w>
ic ul
T our
T it
es on</w>
episo de</w>
An y
el ev
de fi
program .</w>
Jer emy</w>
Franc e,</w>
own .</w>
m o</w>
grow th.</w>
protec ted</w>
, ’</w>
t ag
E l</w>
C ard
d ong</w>
o '
j a</w>
Gu ardi
3 9</w>
retail ers</w>
compreh ensive</w>
cir cul
and re
foreig ners</w>
sm ith</w>
nor thwestern</w>
ch ess</w>
od ds</w>
w ich</w>
m en,</w>
s porting</w>
demonstr ations</w>
Re al</w>
Cr aig</w>
How ard</w>
in ch</w>
an x
universi ties</w>
wor e</w>
demonstr ation</w>
cler ic</w>
ativ e,</w>
o :</w>
mani pul
ts burgh</w>
K i
academ y</w>
l ord</w>
helicop ters</w>
ukra inian</w>
challeng ed</w>
sal ary</w>
op ini
ne d,</w>
mus harraf</w>
is m,</w>
D utch</w>
Mill er</w>
Ar t</w>
t le
quarter .</w>
Phil adelphia</w>
G ab
a to</w>
revis ed</w>
Le wis</w>
Ven ezu
Foot ball</w>
kil om
other s.</w>
de z</w>
o ke</w>
r iding</w>
ah ,</w>
celebr ation</w>
ul tr
in tr
ass ist</w>
mar t</w>
Ph ilipp
for d,</w>
cloth es</w>
sk y
attorne ys</w>
ret ain</w>
pro b
Fo x
f asc
o ks</w>
co m</w>
F ood</w>
convinc ed</w>
contribu tions</w>
ti bet</w>
C ent
si mul
hom eless</w>
a bet
Chris ti
gu ine
er to</w>
J on</w>
is m.</w>
am .</w>
E .</w>
hid den</w>
head ,</w>
Pe tr
I rel
e y,</w>
spon sored</w>
fi xed</w>
den mark</w>
open er</w>
int ellec
ed ict</w>
don ations</w>
t one</w>
ing u
appro ve</w>
descri be</w>
al ty</w>
shoul der</w>
princi pal</w>
w all
har ass
Cap it
sur ged</w>
Gi ven</w>
Br on
w illi
comm emor
quali fy</w>
gradu ate</w>
deter i
norm ally</w>
lib ya</w>
ac commod
extre mis
ath y</w>
al 's</w>
Kel ly</w>
A BC
negoti ating</w>
dri gu
f ear
rac e,</w>
Cali f
slow down</w>
fa x</w>
short- term</w>
per spec
he zbollah</w>
S anta</w>
Ne il</w>
at ol
announc ing</w>
Bu ff
“ A</w>
fe ed</w>
evacu ated</w>
luc ky</w>
sl ump</w>
cli ent</w>
john son</w>
revi ve</w>
imple ment</w>
reven u
ex clud
Christ opher</w>
te ar</w>
sur face</w>
F ree</w>
ag a</w>
G aza</w>
an xi
Lit tle</w>
4 9
manufactur ers</w>
NY Times
essi on.</w>
dist ur
cris is,</w>
R et
o k</w>
men tioned</w>
house hold</w>
advoc ates</w>
Chin a.</w>
gra ve</w>
ret ali
t ."</w>
contem por
stand ard
r he
T est</w>
sex ually</w>
com ed
vo t
replac ement</w>
oper a</w>
ch er
An d
s ound
k im</w>
u re.</w>
cin em
ko k</w>
some what</w>
4 3</w>
ation ,"</w>
h er,</w>
d ur
dec re
Ri ver</w>
particip ants</w>
w oods</w>
ben ch</w>
ric hard</w>
3 6
ti ve
NYTimes .com</w>
win .</w>
ve y</w>
f i</w>
lad en</w>
s ells</w>
tu re
-l ine</w>
fiel d.</w>
do g
K ,</w>
n ess.</w>
fac tion</w>
g lob
B BC
D ay
chec ks</w>
cli ff
id e,</w>
happ ening</w>
c e-
school .</w>
sc al
jo b.</w>
por t.</w>
assess ment</w>
sw ine</w>
sovere ign</w>
ne pal
es ?</w>
exc ited</w>
consid ers</w>
inter views</w>
y ard
don ald</w>
ir o</w>
ste ad
s es,</w>
cl ou
apor e</w>
responsi bil
pres crip
Europe .</w>
per mission</w>
par ade</w>
shir t</w>
and e</w>
Gold man</w>
3 7
prepa res</w>
Un it
Un der
expec ting</w>
bru tal</w>
R E
un expected</w>
L A</w>
cease fire</w>
on gh
under stand
own ership</w>
ow .</w>
##- #</w>
de em
bas es</w>
off er
citi zen</w>
rapid ly</w>
fil m,</w>
Gold en</w>
ill ustr
I’ ll</w>
part y,</w>
D et
s es.</w>
ra ids</w>
inspec tors</w>
offic e,</w>
tr ucks</w>
ra ins</w>
em ir
no body</w>
d ick</w>
d pr
Dev el
sy dney</w>
in al</w>
comp li
ad or
there fore</w>
anc es.</w>
se iz
ess entially</w>
frequ ently</w>
Cor por
presid ent.</w>
ef a</w>
f at</w>
re ference</w>
op pose</w>
on e's</w>
an gu
k h</w>
O pen
pe ,</w>
requ ests</w>
phil os
fa ul
ble w</w>
accep table</w>
else where</w>
d ressed</w>
qu es</w>
Hur ricane</w>
re ha
pe ter</w>
forec lo
play ,</w>
dou bles</w>
e- mail</w>
teach ing</w>
program ,</w>
own ,</w>
ken ne
ac tion.</w>
pre vent
fif a</w>
wind ows</w>
investig ations</w>
valu able</w>
st ops</w>
before .</w>
fundam ent
environ ment
moun t</w>
execu ted</w>
enni fer</w>
With out</w>
H od
Vi et
spon s
R .</w>
bo ats</w>
par aly
typ ical</w>
ell er</w>
fin land</w>
ing ”</w>
t ar
dpr k</w>
b ish
pol e</w>
hotel s</w>
3 ,000</w>
n azi</w>
b ble</w>
Hou st
pos s
st alled</w>
coach es</w>
sustain able</w>
har m</w>
s crip
tern al</w>
S ky
promp ting</w>
enz hen</w>
tu rer</w>
sh all</w>
E uro</w>
lic ense</w>
destruc tion</w>
Glas gow</w>
su res</w>
execu tive,</w>
L ake</w>
co ,</w>
B ush
c av
W ild
aren ’t</w>
swit ch</w>
Sp ace</w>
Pe ter
att ribu
us -
Inv estig
s elec
fel d</w>
as -
mu barak</w>
cra f
chi ps</w>
spir it
, '</w>
th us</w>
per t</w>
urg ent</w>
ei ved</w>
com e.</w>
c af
organis ation</w>
publ ishing</w>
wom en's</w>
ext ent</w>
disappoin ting</w>
pl ace
ow ing</w>
tempor arily</w>
proc ess.</w>
form ing</w>
st ated</w>
expo sure</w>
tab le
survi ve</w>
Rog er</w>
J ustin</w>
adop t</w>
Sar ah</w>
sc ul
w rec
Mar ine</w>
Hosp ital</w>
at er</w>
Parliam ent</w>
L oo
1 )</w>
l o</w>
M iss</w>
D. C.</w>
I ,</w>
mer ch
E s
O ri
un c
pain ting</w>
repor ts.</w>
Osc ar</w>
C ul
oppos ite</w>
pic king</w>
wom en,</w>
o ’s</w>
Ab u</w>
ologi es</w>
b ou
tro phy</w>
A v
ic it</w>
disappoin ted</w>
ph r
cont am
issipp i</w>
Con sum
moun tain
d 's</w>
amaz ing</w>
taiwan ese</w>
end .</w>
countri es,</w>
repe at</w>
ose vic</w>
Lo ve</w>
ste in</w>
t aste</w>
S am</w>
fre ez
bo b</w>
Re present
Inde pendent</w>
r allies</w>
erup ted</w>
weekend ,</w>
iraq is</w>
rw anda</w>
Wiscon sin</w>
fre eze</w>
mo bil
hun gary</w>
beau ty</w>
O l
t wee
B ack</w>
swe et</w>
recogni tion</w>
consen sus</w>
and er
ec ho
gi es</w>
4 9</w>
rook ie</w>
ext ending</w>
nec k</w>
deal .</w>
boo m</w>
au tum
s ick</w>
f ren
sub way</w>
" D
off ense</w>
ma p</w>
u re,</w>
rap id</w>
ap ar
C ook</w>
tr au
ad mit
slow ing</w>
cor n</w>
U N
three- year</w>
" That</w>
rever se</w>
am nesty</w>
sla in</w>
lik e,</w>
ti more</w>
reason able</w>
m al</w>
cha os</w>
thodo x</w>
f ers</w>
batt ling</w>
12 ,</w>
res ident</w>
Bloom berg</w>
4 1</w>
yugosla v</w>
inter nation
bar celona</w>
sol e</w>
vill ages</w>
Attor ney</w>
min es</w>
go v
enthusi as
st al</w>
om er
some body</w>
Per ry</w>
f et
An dro
priv il
low s</w>
wher e
regi str
P hi
e ge</w>
enorm ous</w>
F erg
c ali
appl ication</w>
compan ies,</w>
billion aire</w>
awa ited</w>
S &
advis ers</w>
particip ation</w>
In c.</w>
tomor row
it z
stat ement,</w>
as ean</w>
re stor
Jord an</w>
stand off</w>
Bid en</w>
An d,</w>
pres sing</w>
op er</w>
est yle</w>
ev o</w>
cour t.</w>
up dated</w>
ob ile</w>
resum ed</w>
2012 :</w>
strugg les</w>
##, ###.##</w>
dr illing</w>
pil gri
par am
stat es,</w>
petro leum</w>
Janu ary,</w>
cy pri
anticip ated</w>
campaig ning</w>
histor y,</w>
circumst ances</w>
camp s</w>
ko v
th in</w>
lef tist</w>
inno cent</w>
cent ,</w>
wonder ful</w>
sub mitted</w>
co x</w>
g aining</w>
w are</w>
mag nit
R oc
5 )</w>
rep air</w>
B A
legisl ature</w>
leg acy</w>
he im
Ferg us
quarter finals</w>
un ch</w>
israel is</w>
B each</w>
el -
Edin burgh
el ements</w>
p ages</w>
lead er,</w>
ur a</w>
peti tion</w>
mus e
ground .</w>
Mar ch,</w>
emb attled</w>
Jim my</w>
t rem
nor wegian</w>
che ap</w>
ste pping</w>
Mary land</w>
Par t
mi ke</w>
de tro
: 0
Mc Don
dis pat
eng age</w>
contribu te</w>
collap sed</w>
Con ference</w>
n t
hospit alized</w>
trac king</w>
app lied</w>
br ands</w>
tim or</w>
requ iring</w>
descri bes</w>
vo te.</w>
az z
w ages</w>
sh ell</w>
tomor row</w>
D e</w>
Addi tional</w>
u ,</w>
wher e,</w>
concer n
short age</w>
Com mission
sing ing</w>
read ers</w>
proc ess
cl as
val ley</w>
S un</w>
S k
Eng land,</w>
ation 's</w>
e ter
T -
sou theastern</w>
wh i
F .
mo od</w>
y ;</w>
ho sted</w>
execu tion</w>
t z</w>
accoun t
ph en
auth ori
Al -
roman ian</w>
S A</w>
id em
da q</w>
attack .</w>
l on</w>
I I</w>
ol an</w>
h #n
alban ian</w>
st amp
Zimmer man</w>
k m</w>
elec tion
D joko
aho o</w>
ti ll
co operate</w>
slam med</w>
market s.</w>
h#n #</w>
e- up</w>
ell i</w>
rout ine</w>
advis ory</w>
NB A</w>
enn a</w>
A la
Direc tor</w>
mil osevic</w>
Ser vic
A ber
th es
L ady</w>
appe aled</w>
trag edy</w>
or chestr
P op
tur no
rush ed</w>
cont ained</w>
d ly</w>
the tic</w>
Jer ry</w>
go p</w>
foot age</w>
Execu tive</w>
goal keeper</w>
comm it</w>
subsid ies</w>
Fi ve</w>
than- expected</w>
un anim
Se a</w>
They 're</w>
6 00</w>
y )</w>
m ail
ro les</w>
publ ish
h ann
4 6</w>
mist ake</w>
Mit ch
ti vel
per sist
s ick
m ug
TH E</w>
ultim ate</w>
consu mption</w>
con crete</w>
it ting</w>
M etro
bor is</w>
Su b
e ager</w>
gu est</w>
Stan ley</w>
hi ke</w>
effici ent</w>
k es
heav y
om en
ed e</w>
sh eri
ra pe</w>
K ate</w>
on ian</w>
air ports</w>
issu e.</w>
iter ran
b at</w>
Squ are</w>
war .</w>
chang e,</w>
as se
U C
el ine</w>
S imp
R oo
En ter
zer o</w>
c ity,</w>
is k</w>
ear n
vil le,</w>
let ting</w>
dam aging</w>
Cel tic</w>
M ay,</w>
tan ks</w>
ran ked</w>
coll ect</w>
L y
n avi
tal e</w>
conven i
cros sed</w>
popul arity</w>
the ft</w>
ed ”</w>
P aren
yiel d</w>
relev ant</w>
conven tional</w>
tr ains</w>
coll ision</w>
coach ing</w>
orgi an</w>
ing ly,</w>
S ul
bol i
penal ties</w>
or -
P ater
si z
f ame</w>
ici ous</w>
Rad io</w>
charg ing</w>
ar bit
nas a</w>
O ak
in ter</w>
under ground</w>
cover s</w>
contribu tion</w>
deep er</w>
Romne y.</w>
camer as</w>
b ic
vide os</w>
u ti
qui et
Osbor ne</w>
no ting</w>
detro it</w>
Tur ke
s ely</w>
it y's</w>
ol ina</w>
min d
car to
K .</w>
pro vo
tor s.</w>
mean while,</w>
s ain
ref us
enh ance</w>
fla v
Di amond</w>
immigr ant</w>
bir ds</w>
as pir
A z
reconc ili
Ch air
P ot
Whe ther</w>
J ose</w>
li mp
- related</w>
mah moud</w>
9 5</w>
Phi l</w>
T E
v atican</w>
s ic
de .</w>
elimin ate</w>
Ok lahoma</w>
ak e,</w>
exten sive</w>
re di
p av
degre es</w>
t arian</w>
fin es</w>
Val ley</w>
sol o</w>
clim b</w>
T ake</w>
victor ies</w>
cit y's</w>
par t,</w>
es sions</w>
thir ds</w>
weekend .</w>
industr y.</w>
D A
ton 's</w>
fu gi
cambodi an</w>
to day
ref using</w>
retail er</w>
boo sting</w>
ber g
C op
j acques</w>
wi reless</w>
pur pose</w>
gener ate</w>
b orders</w>
detain ees</w>
Boe hn
correc t</w>
u red</w>
hi j
disput es</w>
Sou th
emen i</w>
fish er
e i</w>
Sec ret</w>
anc es,</w>
pl ate</w>
Mo scow</w>
countri es.</w>
succe ed</w>
onz al
O cc
problem s.</w>
a ust</w>
cas es,</w>
sub stitu
mer ely</w>
bal lots</w>
P ut
Tenn es
har sh</w>
Americ a's</w>
fle et</w>
Min ist
R ose</w>
y emen</w>
enc y.</w>
adv ances</w>
t aught</w>
op ol
scul p
franch ise</w>
clo thing</w>
H ave</w>
ra w</w>
resul ting</w>
- in-
ch est
persu ade</w>
k ofi</w>
en em
aw aren
har m
fer ry</w>
week 's</w>
la z
k ir
Com pan
requ ested</w>
Hill ary</w>
Ear th</w>
C leg
spo ts</w>
dec l
E U
atmosp here</w>
sh enzhen</w>
J ay</w>
C ow
bro ther
f ty</w>
th ank</w>
ad ds</w>
n ess
hang ing</w>
viol ated</w>
ou ting</w>
L im
inde ed</w>
advis ed</w>
demonstr ated</w>
H ard
other s,</w>
Damasc us</w>
nu tri
F ern
inten tion</w>
line up</w>
in es,</w>
gener ated</w>
“ What</w>
h ai
ak ,</w>
expl ore</w>
gar ian</w>
collec tive</w>
inv itation</w>
F ire</w>
sou thwestern</w>
D oc
p ga</w>
madinej ad</w>
' '
rec ording</w>
voic ed</w>
clo ck</w>
Indi an
Stu d
ves sel</w>
ch elsea</w>
ass ess</w>
Smi th,</w>
transi t</w>
avi er</w>
Sandus ky</w>
yiel ds</w>
diss ident</w>
O reg
R ac
in ely</w>
before ,</w>
Festi val</w>
so aring</w>
k erry</w>
d '
V ie
ret t</w>
ch op
belar us</w>
pres ti
j ac
up grad
S o,</w>
road side</w>
Braz il</w>
proble m.</w>
bol ster</w>
ish .</w>
at s.</w>
n an</w>
ei ght-
ac tion
wh ist
volun t
por tuguese</w>
bag s</w>
c ity.</w>
C D
2 5,</w>
ch icken</w>
T ha
b one</w>
proper ly</w>
plun ge</w>
T re
3 1,</w>
3 8
requi rements</w>
Ge orgia</w>
L atin</w>
trac ks</w>
Afghan istan,</w>
rem lin</w>
ep idem
Beng haz
explo sive</w>
sla m</w>
attrac ted</w>
acqu it
sc or
common wealth</w>
inf ected</w>
Char lie</w>
mag ic</w>
mu ch-
mil l
lt d.</w>
tro op</w>
L .A.</w>
trav eled</w>
surr ounded</w>
nin e-
ariz ona</w>
er s
sl ugg
deploy ment</w>
ab u</w>
ing redi
stud y,</w>
ch ocol
Administr ation</w>
Wal ker</w>
hu go</w>
li ked</w>
essi on,</w>
ro bo
ar chi
Pro jec
B M
insu la</w>
Wind ows</w>
15 -
warr ant</w>
class es</w>
di c</w>
La w</w>
dec ent</w>
susp end</w>
ch i</w>
p a</w>
enc es.</w>
Florid a,</w>
K ong</w>
rhe tor
Ohi o,</w>
discrimin ation</w>
archit ec
ann ed</w>
pri est</w>
inc inn
possi ble.</w>
Pro tec
sud den</w>
g az
Sus an</w>
pharm aceu
volunte ers</w>
oph istic
de tail</w>
YouTu be</w>
S ports</w>
ser ves</w>
li p
summer ,</w>
F T
Devel op
B P</w>
scre ening</w>
wor sen
ay ne</w>
C er
back ground</w>
comp ound</w>
0 s.</w>
diagno sed</w>
zimbab we
r and
munici pal</w>
l ind
jord anian</w>
autom aker</w>
8 00</w>
B at
su rely</w>
ob st
critic ised</w>
speci alist</w>
gra v
don es
oc aust</w>
er ror</w>
Wil son</w>
sp ur
In dones
( 6
v ess
bet an</w>
forec asts</w>
Com mer
shoc ked</w>
ch rysler</w>
bon us</w>
V ice</w>
G ordon</w>
Matthe w</w>
us er</w>
willi am</w>
on e’s</w>
fundam ental</w>
consu mer
lo d
Hear ts</w>
autom atic</w>
ch ap
bo l</w>
Mc Car
tab le.</w>
R av
-r ich</w>
you 've</w>
car los</w>
resid ential</w>
thou ghts</w>
p he
re signs</w>
mis sion,</w>
tic ,</w>
touch down</w>
mid day</w>
k istan</w>
im mun
U p</w>
w ear
gl ass
Champion ship</w>
B e</w>
ecu ador</w>
m es
bur den</w>
man ’s</w>
rac y</w>
myster y</w>
ten se</w>
v i</w>
fr ing
ac y.</w>
president 's</w>
iz on</w>
high lights</w>
Prosecu tors</w>
P G
pow er,</w>
cont aining</w>
201 3.</w>
20 ,000</w>
-r anked</w>
ic ally,</w>
stun ning</w>
summer .</w>
j ol
s ophistic
demonstr ate</w>
p apers</w>
any where</w>
expl oration</w>
qu anti
s elect</w>
un fortun
on na</w>
ing 's</w>
y l</w>
capital ,</w>
j an.</w>
ay ’s</w>
care fully</w>
Wh ich</w>
be st
G ol
w au
job s.</w>
ex ha
tr apped</w>
jo y</w>
scot land</w>
l ag
man hattan</w>
proper ties</w>
what ’s</w>
re a</w>
hou ston</w>
R em
r ay</w>
Im ages</w>
z ambi
b ound
h es
Occ up
r gy
l enders</w>
C ros
wor ds,</w>
w ound</w>
vacc ine</w>
reiter ated</w>
ext ends</w>
sil ence</w>
complic ated</w>
appoin tment</w>
gra phic</w>
K er
ro o
hou se.</w>
$ 9
stud ying</w>
saf e
2 2,</w>
T ai
tis m</w>
mar ines</w>
scru tiny</w>
high light</w>
YOR K</w>
en tion</w>
e gr
% .</w>
they 've</w>
d awn</w>
S ky</w>
stat es.</w>
bu l</w>
ac es</w>
Ro ad</w>
wher e.</w>
er ,"</w>
strong est</w>
Y ear
he ight
.m .,</w>
s ank</w>
d it
z hou</w>
commun ication</w>
poin ting</w>
barrel s</w>
qu al
GD P</w>
se oul</w>
S wit
ob es
ass em
pit cher</w>
weigh ed</w>
ses sions</w>
deliver ing</w>
li ke
croati an</w>
F ab
Educ ation</w>
Ch am
br and
rob ust</w>
pro sper
mis ses</w>
k ings</w>
car din
.com ,</w>
F err
un like</w>
bar red</w>
ay a</w>
long est</w>
pr o</w>
appear ing</w>
in 's</w>
Inste ad</w>
A vi
str o</w>
in ches</w>
ax y</w>
ome ter</w>
s amp
perio d.</w>
Fam ily</w>
w alls</w>
it ,”</w>
un beaten</w>
or a</w>
ne ts</w>
toge ther,</w>
investig ated</w>
( 7
ro of</w>
sovere ign
Medic are</w>
Hu gh
ve to</w>
5 4</w>
g m</w>
contempor ary</w>
sha ke</w>
boo k.</w>
G reg
ch ase</w>
Nov ember.</w>
e h</w>
des c
explo sions</w>
thous and</w>
,00 0
trans ferred</w>
s si
4 ,
spot light</w>
ly n
haven ’t</w>
ber n
war s</w>
k ing.</w>
M et
ff 's</w>
promo tion</w>
L loy
ab out
Liber al</w>
Every one</w>
list en</w>
tan e
An n</w>
Holl ande</w>
E .
w rest
pun ishment</w>
ri o</w>
# th</w>
mi ami</w>
L e</w>
or ange</w>
K at
- time</w>
ab uses</w>
A tt
kit chen</w>
fro zen</w>
ill ,</w>
F und
win ,</w>
w ounds</w>
discus sing</w>
Die go</w>
min ers</w>
2 4,</w>
ul l</w>
17 ,</w>
minut es,</w>
f l</w>
law suits</w>
seem ingly</w>
notic ed</w>
med als</w>
1 50</w>
vis a</w>
kin ds</w>
str ongh
oper ated</w>
ver age</w>
L an
con fron
M ali
cit y’s</w>
p p</w>
ton ight</w>
C level
" She</w>
ac res</w>
res or
se -
jur ors</w>
endor sed</w>
" There's</w>
gr ants</w>
B .</w>
favour ite</w>
bul l
t ent</w>
concep t</w>
sli p</w>
German y,</w>
Calif .,</w>
bid ding</w>
Mus ic</w>
id e.</w>
recei ves</w>
direc tor,</w>
per cep
cre ws</w>
b en</w>
athle tics</w>
id er</w>
J ob
fru it</w>
ad mit</w>
O thers</w>
terri ble</w>
negoti ators</w>
ore s</w>
re vers
neu tr
g ender</w>
G az
z ar
200 7.</w>
N. Y
regard ed</w>
liber ation</w>
crow ds</w>
M eg
st s.</w>
plan ,</w>
bank ers</w>
So viet</w>
spot ted</w>
euro #</w>
sharehol der</w>
reg ard</w>
mon ey
15 ,</w>
enc y,</w>
declar ation</w>
ell o</w>
il es</w>
Sher i
2 3,</w>
re ward</w>
b ids</w>
legitim ate</w>
de pic
5 2</w>
di visi
Sud an</w>
p raise</w>
ber ry</w>
rec oun
“We ’re</w>
cl ashed</w>
less ons</w>
1 1-
commun ic
dis ast
j a
bo ards</w>
air bus</w>
Dec ember,</w>
L ON
nation ’s</w>
R af
subur ban</w>
ver se</w>
pre fer</w>
F T</w>
viol ation</w>
Analy sts</w>
weren 't</w>
b au
roc ks</w>
half .</w>
d d
o on</w>
tri ple</w>
Al l-
exam ine</w>
photograph s</w>
fr an
. #</w>
re alize</w>
ex trad
ben e
anti- government</w>
gi ous</w>
ac o</w>
jaz z</w>
destro y</w>
ni ghts</w>
reve als</w>
en s,</w>
s worn</w>
dec or
To day,</w>
" That's</w>
Mar io</w>
Americ a.</w>
Govern or</w>
E ll
d row
tou ched</w>
N ext</w>
J ennifer</w>
y ankees</w>
shi re,</w>
domin ant</w>
car ries</w>
Univers ity,</w>
ill er</w>
sur ge
mug abe</w>
deb ates</w>
K a
ber lusconi</w>
ai ming</w>
L anc
ver sus</w>
specific ally</w>
bab ies</w>
Se an</w>
I L
soci alist</w>
Sen ator</w>
es co</w>
Cor p</w>
sour i</w>
comfor t</w>
answ ers</w>
H S
“ And</w>
En viron
sp in</w>
posi tion,</w>
ant on
extrem ists</w>
celebr ations</w>
Scot land’s</w>
testi fy</w>
at -
purchas es</w>
lat ter</w>
di abet
Brookly n</w>
Nov ember,</w>
J ess
18 ,</w>
dest in
us e,</w>
st rain</w>
memor ies</w>
de al,</w>
show down</w>
post ing</w>
over time</w>
iterran ean</w>
maced onia</w>
equ ally</w>
exc iting</w>
celebr ating</w>
Wat ch</w>
ni k
D ru
oper ators</w>
isi ana</w>
es -
16 ,</w>
Bei j
Bu re
dis gr
girl friend</w>
roc ked</w>
descri bing</w>
afr aid</w>
Wom en</w>
4 7
deal t</w>
met e
L A
Re public</w>
ber g,</w>
D anny</w>
h iding</w>
char ter</w>
30 -
2 1,</w>
hom eland</w>
es hi
thom as</w>
men ted</w>
Lab or</w>
Obam a.</w>
docum ent
A dam
conv ince</w>
invest ed</w>
A li
cour tro
Apr il,</w>
An ti
bre ach</w>
pass age</w>
indic ate</w>
I mag
dec iding</w>
P as
.com /
escap ed</w>
ab dullah</w>
B ay
bloc king</w>
third- quarter</w>
premi ere</w>
freed om
manufac turer</w>
premi um</w>
li sts</w>
net anyahu</w>
ong yang</w>
l um
h ec
brilli ant</w>
P R
S :</w>
pro li
Ander son</w>
care er.</w>
develop ments</w>
Scot land,</w>
Reser ve</w>
g -
Don 't</w>
ed itor
de br
investig ation.</w>
reti re</w>
psy chi
Gi b
Pro duc
Ham as</w>
ick ,</w>
Assad 's</w>
" I've</w>
Britain ’s</w>
regi on.</w>
refl ects</w>
El ection</w>
deem ed</w>
arbit r
ball s</w>
le ase</w>
Min nesota</w>
invest ing</w>
s light</w>
NAS A</w>
sal t</w>
C ast
dec lines</w>
success or</w>
subsidi ary</w>
highligh ted</w>
met ro
ed r
weap on</w>
the ory</w>
le ak</w>
Un til</w>
k abul</w>
cat astro
hol dings</w>
200 0</w>
we 'll</w>
net t</w>
a res</w>
tun nel</w>
recogni zed</w>
hor ses</w>
reconcili ation</w>
Dis ney</w>
ac e,</w>
or ia</w>
opport un
B ook</w>
projec ted</w>
D ave</w>
resul t,</w>
str ange</w>
zamb ian</w>
ref uses</w>
ity ,"</w>
la bel</w>
jun ta</w>
ho t
4 )</w>
first -round</w>
hosti le</w>
Gra ham</w>
Ch ancellor</w>
correspond ent</w>
Y ankees</w>
2 8,</w>
add ressed</w>
cas ino</w>
G et</w>
half ,</w>
Chair man</w>
M arg
“ My</w>
valu ed</w>
Alex ander</w>
Americ a’s</w>
200 6,</w>
tox ic</w>
Ph ilip</w>
se g
hus band,</w>
Sar kozy</w>
intim id
S pur
ali d</w>
i 's</w>
guidel ines</w>
w ic
prison er</w>
accompan ied</w>
Ed wards</w>
ation ."</w>
d ying</w>
pen sions</w>
Hamp shire</w>
Europe 's</w>
Ch en</w>
Indi ana</w>
amend ment</w>
P M</w>
wh is
high -r
whe at</w>
ren der</w>
j im
ind ing</w>
I T
u efa</w>
coun sel
main ten
after math</w>
re construction</w>
over s</w>
near -
pe .</w>
H us
refer ee</w>
U kra
Syri a's</w>
kilom eters</w>
r ud
r ing
200 3</w>
moun tains</w>
gi o</w>
g lit
eth ics</w>
dr one</w>
approach ed</w>
government ’s</w>
Ging rich
tw in</w>
el le</w>
milit ar
j r.</w>
aband on</w>
prepar ations</w>
Stand ard</w>
rod ham</w>
,00 0-
wild life</w>
chem icals</w>
beh ind
R est
resol ved</w>
play offs</w>
acc idents</w>
divor ce</w>
el ess,</w>
deteri or
av al
categ ory</w>
Washing ton.</w>
re pl
Jam ie</w>
some how</w>
Ye ar</w>
Den ver</w>
on t</w>
We 're</w>
C are</w>
Mur do
Face book
industr y,</w>
ed er</w>
dub ai</w>
Writ ing</w>
la under
weak ness</w>
publ isher</w>
tri ps</w>
break through</w>
to ols</w>
co w</w>
appl ications</w>
attrac tive</w>
at o
2 9,</w>
p ound
sp reading</w>
const ant</w>
mo thers</w>
associ ate</w>
Bru ce</w>
ob tain</w>
ex pi
201 4</w>
emer ge</w>
sor ti
resear cher</w>
col or</w>
preser ve</w>
ml n</w>
te :</w>
ak e
et a</w>
Q at
polic e.</w>
S ach
M and
Jo sh</w>
ru mors</w>
part y.</w>
Mar ia</w>
daugh ter,</w>
19 ,</w>
play ers,</w>
bat tered</w>
P A</w>
K nicks</w>
integr ation</w>
D own
ne y,</w>
F ort</w>
grow s</w>
long ,</w>
war ,</w>
incumb ent</w>
hero in</w>
indic ation</w>
fin ances</w>
contin ent</w>
lob b
attitu de</w>
as es</w>
bet ter.</w>
H ond
- elect</w>
p ast,</w>
decl are</w>
al-qa eda</w>
" For</w>
wom an,</w>
L and
magnit ude</w>
ky rgy
polic eman</w>
s ne
contr ast</w>
Stu art</w>
R ev
satis fied</w>
nt $</w>
challeng er</w>
V is
rest rain
car olina</w>
5 1</w>
f t
sing le-
ex ternal</w>
e ks</w>
primar ily</w>
lif f</w>
friend ,</w>
don ated</w>
religi on</w>
viol ating</w>
Man hatt
Lib yan</w>
Nor th
L op
Afghanistan .</w>
pr ide</w>
Rus sell</w>
Loc al</w>
ti sh
isol ated</w>
fle e</w>
ator s,</w>
Con tro
mar ched</w>
del igh
bang kok</w>
1 3,</w>
four -year</w>
arri ving</w>
S wan
q atar</w>
proced ures</w>
fir st,</w>
Brow n
Chan nel</w>
p in</w>
fant astic</w>
du ties</w>
r age</w>
oc t.</w>
wra pped</w>
Ste wart</w>
H ud
pl agu
phen omen
Jer se
public ation</w>
am ate
B ain</w>
o h
c at</w>
releas es</w>
cour t,</w>
wh o,</w>
gam bling</w>
wal ks</w>
nic olas</w>
he ed</w>
all- time</w>
w oes</w>
pre fer
slam s</w>
Co sta</w>
ven u
mon itors</w>
hun g</w>
manag er,</w>
bu mp
super -
h all
com modi
cl oud</w>
Britain ,</w>
lead .</w>
top ped</w>
Ro ss</w>
whol es
EC B</w>
f illing</w>
Hou se,</w>
plot ting</w>
clos est</w>
attack ,</w>
addi tion,</w>
eng er</w>
assu red</w>
prevent ing</w>
say ing,</w>
l er,</w>
si erra</w>
Econ omic</w>
meth o
: ##</w>
Sund ay's</w>
" These</w>
re build</w>
bal k
y es</w>
ti p</w>
ran king</w>
promo ted</w>
drin ks</w>
alco hol
Par k,</w>
pic ks</w>
pre ferred</w>
decisi ve</w>
child hood</w>
zambi que</w>
is land
cast ing</w>
parti al</w>
hond ur
ank s
house holds</w>
job s,</w>
coun ting</w>
pro por
awaren ess</w>
d h
as er</w>
" He's</w>
slow ed</w>
li verpool</w>
s ed
est .</w>
ast .</w>
Ho tel</w>
ward s,</w>
Soci ety</w>
Par t</w>
leg end
al- Qa
New s.</w>
wh ich,</w>
und i</w>
Mc Il
road .</w>
in her
v on</w>
Sept ember,</w>
sk ore
revolution ary</w>
cro p</w>
way s,</w>
tab let</w>
stor y.</w>
stor age</w>
b ell
col in</w>
Ar ch
wa ited</w>
Photo /
factor ies</w>
protest ing</w>
( S
manu el</w>
d ’s</w>
stu died</w>
hand led</w>
bre a
2 6,</w>
weal th
m in</w>
cl ari
polic y.</w>
defin ed</w>
US A</w>
assu me</w>
ach ing</w>
Cor p.</w>
f ili
s ity</w>
Camp aig
sho es</w>
s ar</w>
H end
int end
ab bing</w>
murd ered</w>
ac he</w>
14 ,</w>
for th
vir ginia</w>
tw ist
ac t.</w>
expen ses</w>
F .</w>
shoo k</w>
Fre ed
Nic hol
wat er,</w>
pir ates</w>
cost a</w>
ank le</w>
trans l
man ila</w>
proceed ings</w>
visi ble</w>
regul ator</w>
eg o</w>
ch ol
Franc is
ex clusive</w>
ev ent,</w>
ab sor
dict ator</w>
R evol
£ 2
us e
at ch</w>
a ."</w>
Te hran</w>
s its</w>
Col or
mil i
Congres sional</w>
la ,</w>
s burg</w>
ad mir
Fun d</w>
de fl
c c</w>
sign als</w>
frustr ated</w>
5 ,
2 7,</w>
leng th</w>
tank er</w>
par ks</w>
in gh
em ails</w>
Tex as,</w>
M ore
t te</w>
CI A</w>
( P
break away</w>
zimbabwe an</w>
preven ted</w>
str anded</w>
Grou p,</w>
first- quarter</w>
g ood.</w>
frag ile</w>
k 's</w>
enti tled</w>
drigu ez</w>
cr ash
mass achusetts</w>
Atl anta</w>
wau ke
ge orgian</w>
atr ina</w>
pain ted</w>
compan ies.</w>
£ 3
def ault</w>
cre ates</w>
subur b</w>
dec lining</w>
S ab
oursel ves</w>
W it
Al p
re affir
m :</w>
dang er
P entagon</w>
mist akes</w>
lo yal</w>
cop y
vo te,</w>
v is</w>
Ci vil</w>
pu pil
b hut
Michel le</w>
el eph
fund rais
w ood,</w>
spectac ular</w>
di min
cham ber</w>
frustr ation</w>
ground ,</w>
S& P</w>
P S</w>
Br and
ty co
apol is</w>
lat e-
gr abbed</w>
appro xim
Febru ary,</w>
inter pre
100 ,000</w>
Veg as</w>
c aster</w>
bi ograph
adequ ate</w>
interview .</w>
usi ve</w>
gl as</w>
IM F</w>
saf et
sh e’s</w>
qu ot
m atic</w>
Hod g
B E
ha ils</w>
ay an</w>
ak a</w>
travel ers</w>
techn ologies</w>
some where</w>
replac ing</w>
j ail
c ad
Nig er
s u</w>
es sion
wom en.</w>
issu es.</w>
pain ful</w>
mean ing
gu ess</w>
ti red</w>
read s</w>
profit -
U. S
G en.</w>
De pu
D ,</w>
indi es</w>
( or</w>
p ist
to s
#, ###-
D ri
bu ys</w>
an j
col orado</w>
neighb or</w>
expl ains</w>
trium ph</w>
igno red</w>
at ro
J r.</w>
leg end</w>
prepar ation</w>
pr on
cele bri
V in
bac ter
alger ia</w>
taxpay ers</w>
inter rog
death ,</w>
Mar ch.</w>
Aber de
institu tion</w>
akh stan</w>
C lose</w>
con voy</w>
plan .</w>
evacu ation</w>
% ,</w>
y es,</w>
plan et</w>
decisi on.</w>
me ts</w>
dis h
propos es</w>
perfec tly</w>
£ 1
5 %</w>
wat er.</w>
D allas</w>
frequ ent</w>
a )</w>
Ariz on
car di
econom ics</w>
mp h</w>
connec t</w>
en able</w>
Gl en
legislat ors</w>
has n’t</w>
vi o</w>
ste aling</w>
M uch</w>
spon sor
li e
high- tech</w>
T on
mid night</w>
high s</w>
De b
Bud get</w>
phil adelphia</w>
har v
Egyp t's</w>
L aur
sp an</w>
3 )</w>
p an</w>
gu atem
ff le</w>
C H
is ation</w>
educ ational</w>
C oo
to yota</w>
so ared</w>
Ri ver
( The</w>
bur undi</w>
Jun e,</w>
un certain</w>
j in
J en
ham ,</w>
ar on</w>
ho sting</w>
websit e.</w>
l uck</w>
deb ts</w>
n ai
commer ci
ti veness</w>
ativ e.</w>
person ally</w>
Gre g</w>
rec alls</w>
ar ch</w>
AN G
fix ing</w>
la sting</w>
we ight
k l
is e,</w>
P ear
p y</w>
dec .</w>
P R</w>
je wel
m ere</w>
sec tarian</w>
will ing
Con stitu
too l</w>
consider able</w>
vol ley
invol ve</w>
foo ds</w>
cop y</w>
en emy</w>
big -
portfol io</w>
H on
sc are</w>
ver i
fav our</w>
ti de</w>
offici als,</w>
leg s</w>
E th
sen i
s acked</w>
Tr ade</w>
col league</w>
p ill
Sec ond</w>
ov a</w>
judg ment</w>
job ,</w>
fi ghts</w>
n fl</w>
Commun ist</w>
In c</w>
up grade</w>
Lev eson</w>
law ed</w>
a qu
tim ing</w>
su ing</w>
th ings,</w>
g oog
ar men
Feder er</w>
reg ister</w>
rw andan</w>
az er
slaugh ter</w>
ste ve</w>
def ec
Du ke</w>
Comp any</w>
mach in
ay -
pas sion</w>
R -
ir i</w>
inst alled</w>
che aper</w>
bor ough</w>
Med ia</w>
bour ne</w>
s ),</w>
fourth- quarter</w>
emir ates</w>
cont ing
ai ,</w>
u.s. -
refl ected</w>
g mt</w>
No ,</w>
spirit ual</w>
au ght
voic es</w>
Har vard</w>
14 .
ro of
cr y
Bo y
pe tr
$ 100</w>
survi val</w>
choic es</w>
bre ath
notor ious</w>
s inc
d ale</w>
anc ou
quiet ly</w>
de d
roc k
Fil m</w>
traff ick
Indi a,</w>
Bar bar
P oll
201 4.</w>
guang dong</w>
Broad way</w>
king dom</w>
pur suit</w>
R ock</w>
interview ed</w>
Net anyahu</w>
distric ts</w>
down grad
st er,</w>
Haw ai
record -
cost um
b old</w>
loc ations</w>
con sorti
ch e</w>
M anning</w>
sec tors</w>
clin ical</w>
purch ased</w>
bank s,</w>
Brother hood</w>
50 -
y ach
high- level</w>
cri tic</w>
200 2</w>
you ’ve</w>
ter m,</w>
ric h,</w>
den ounced</w>
ill -
c airo</w>
Mad rid</w>
th al</w>
F air
JP Morgan</w>
p ond
8 5</w>
down turn</w>
ing ?</w>
gra in</w>
hon ored</w>
tr a
univers al</w>
ity ."</w>
euro ###</w>
adju sted</w>
ce o</w>
refl ecting</w>
B y
you 'll</w>
ak i</w>
. org
li thu
fac tions</w>
5 3</w>
public .</w>
p ig
it ate</w>
invol ves</w>
F le
stop ping</w>
5 6</w>
tic ket
st a
h air
board .</w>
B run
#- year-old</w>
F ren
th rows</w>
under mine</w>
young est</w>
princi ple</w>
p it</w>
mo zambique</w>
str icken</w>
ast ed</w>
ab ol
ez ,</w>
Andro id</w>
pro vision</w>
sp ell</w>
sup pl
star ring</w>
on :</w>
tr ick</w>
k ia</w>
canc el</w>
Re gi
symptom s</w>
luc r
hal ted</w>
Hou se
we igh</w>
broadcast ing</w>
plan ted</w>
del ta</w>
sever ely</w>
tac tics</w>
Victor ia</w>
sk ating</w>
Man agement</w>
ethiop ian</w>
bulgar ian</w>
b p</w>
awa iting</w>
E le
sym bol</w>
sit e,</w>
re alized</w>
group s,</w>
UK ,</w>
en ko</w>
bla ze</w>
sen g</w>
mand ela</w>
Centr e</w>
v ed.</w>
ho on</w>
f oul</w>
re views</w>
int ent</w>
Kent ucky</w>
or ’s</w>
k id</w>
" So</w>
pain t</w>
vill agers</w>
sub scri
fl y
spe ed
ap olog
(M ORE:</w>
A A</w>
bl ind</w>
vi gor
migr ants</w>
B ill
un expect
Prof essor</w>
government -
g d
Color ad
mon gol
sh in
Le on
Rom an</w>
cr y</w>
Iran ,</w>
pat ent</w>
" M
r hy
ter 's</w>
coun ted</w>
polic e,</w>
no tion</w>
turn out</w>
intellec tual</w>
App le's</w>
go v</w>
outr age</w>
f are
euro ##</w>
hy dro
futu re
dram atically</w>
reluct ant</w>
Mc K
sign ature</w>
ge ar</w>
net work
je op
buc ks</w>
War ren</w>
Connec ticut</w>
offici als.</w>
Mi am
thir d
ne t.</w>
le one</w>
con clusion</w>
h amp
fr ame
w ire</w>
re nov
p her</w>
main taining</w>
implement ation</w>
any body</w>
de voted</w>
ak ia</w>
two- thirds</w>
exc essive</w>
N at
with drew</w>
en counter</w>
th ick</w>
Mar tin
t ly,</w>
st ays</w>
C ity.</w>
willing ness</w>
pen sion
hour s.</w>
fol k</w>
Un fortun
D ow</w>
Smi th
dub bed</w>
L ong
our ,</w>
auth ors</w>
S O
R even
Sam sung</w>
Illin ois</w>
18 -
him self.</w>
ef s</w>
$ 2</w>
j et
kenne dy</w>
t ap
aw ay
polic y,</w>
cypri ot</w>
c em
O il</w>
de duc
go -
4 6
train er</w>
gri p</w>
care ful</w>
Alab ama</w>
t ear
nerv ous</w>
he im</w>
d allas</w>
ca stro</w>
trigg er</w>
fall .</w>
do or
Ed ward</w>
un fair</w>
market s,</w>
DN A</w>
p leads</w>
guine a</w>
ter m.</w>
rav aged</w>
&amp ;
dis appeared</w>
uz be
provinc es</w>
oper ative</w>
al do</w>
spr int</w>
to s</w>
grow th,</w>
S el
sit e.</w>
ac y,</w>
stat e
servic e.</w>
relation ships</w>
pen insula</w>
main stream</w>
rob bery</w>
cont acted</w>
P ric
president ’s</w>
nov .</w>
libr ary</w>
Janu ary.</w>
F ac
issu es,</w>
ent 's</w>
hu d</w>
- -
mar g
dis cover</w>
us eful</w>
Ham ilton</w>
doll ar
wor thy</w>
introduc tion</w>
ec k</w>
suspici ous</w>
conflic ts</w>
alban ia</w>
Dod gers</w>
suppor t.</w>
philos oph
Cap ital
ex trac
Don ’t</w>
mom ent,</w>
billi on-dollar</w>
October ,</w>
g ood,</w>
earli er.</w>
cy ber
in os</w>
at ing.</w>
Djoko vic</w>
9 9
se t.</w>
democr at</w>
servic es.</w>
Moham med</w>
Gu ard</w>
c ats</w>
Occup y</w>
enjo ying</w>
su l
goog le</w>
devast ated</w>
ste ep</w>
sear ched</w>
proc essing</w>
respond ing</w>
nation als</w>
enough .</w>
I .
ris k
cour age</w>
town ,</w>
R ight</w>
trium ph
defend ants</w>
D id</w>
sp ying</w>
refus al</w>
bas ically</w>
for tune</w>
P ,</w>
G un
E ,</w>
ast ing</w>
telev isi
servic e,</w>
se t,</w>
Stre et
accep ting</w>
John son,</w>
guerr illa</w>
brok ers</w>
Jess ica</w>
produc tive</w>
#. ###</w>
reti re
o hi
J an</w>
F el
200 1</w>
ment 's</w>
A del
coo k
follow ers</w>
bi ke</w>
20 th</w>
b y-
appear ances</w>
R ock
$ 4.
kar zai</w>
compos ite</w>
Mc G
tic .</w>
dis arm
confront ation</w>
Syri a.</w>
endor s
sil ent</w>
p en</w>
gren ade</w>
strai t</w>
Santor um
A wards</w>
new s
nan ke</w>
f an
volley ball</w>
dod gers</w>
G M</w>
consult ant</w>
P ay
president -elect</w>
teen agers</w>
h ide</w>
We ek</w>
nam e,</w>
Center ,</w>
s ).</w>
sw ag
C .,</w>
na p</w>
gene tic</w>
2 )</w>
land o</w>
priv ati
_ _
d ole</w>
stri pped</w>
p ink</w>
ak e.</w>
embr ace</w>
pursu ing</w>
int ends</w>
z em
rel ent
"We 've</w>
sh am
lucr ative</w>
bal anced</w>
" People</w>
ster o
coo king</w>
c ook</w>
Se e</w>
C rown</w>
K en</w>
30 ,000</w>
Found ation</w>
narrow ly</w>
inf ection</w>
loo se</w>
launder ing</w>
week ’s</w>
ran k</w>
bu tt
Ric hard
Brow n,</w>
f c</w>
charg es.</w>
Pow er</w>
team -
Mu bar
pre dict</w>
Wor ld
play ers.</w>
pas sion
fol ks</w>
pa ul
colleg es</w>
d un
up beat</w>
regard less</w>
ti ps</w>
shoot ings</w>
su peri
perio d,</w>
moun ted</w>
cap tain
ne e
ab ad</w>
h r
Consum er</w>
heavy weight</w>
expen se</w>
pic tu
hom o
arr ay</w>
ab used</w>
Ch else
fo x</w>
ev ed</w>
Spec ial</w>
Ge org
er t</w>
don e.</w>
5 7</w>
dis closure</w>
Spe aker</w>
classi fied</w>
b ass
b or</w>
S on
rememb ered</w>
inde fin
posi tion
val ,</w>
set back</w>
rout es</w>
I d
z ation</w>
D an
re open</w>
est ing</w>
past .</w>
direc tor
D ick
murd ering</w>
Thomp son</w>
athle tic</w>
Rob inson</w>
t ing,</w>
di es
lou is</w>
al :</w>
cal end
s ’s</w>
nation alist</w>
seri es,</w>
po or
oc e
er ."</w>
proc ess,</w>
bene ath</w>
so il</w>
dres sing</w>
C ou
inter rup
el s,</w>
b al</w>
Arm strong</w>
dis man
g ain
anch e</w>
drag ged</w>
insurg ency</w>
g ym
C ho
al om</w>
m ingham</w>
ref use</w>
ti gers</w>
ric an
mo m</w>
Cred it:</w>
un identified</w>
St adium</w>
g en.</w>
dar k
deligh ted</w>
w ary</w>
ut en
provid er</w>
fac e.</w>
er re</w>
C lo
ser ge
ohi o</w>
fund raising</w>
enc es,</w>
ed iting</w>
rep li
domin ate</w>
ar agu
Cha vez</w>
mat ched</w>
t .”</w>
explan ation</w>
determin ation</w>
West min
so x</w>
sl ides</w>
og rap
Sh ow
stor med</w>
kic ks</w>
engine ers</w>
Ju bil
seri ous
vac ation</w>
func tion</w>
ard .</w>
Mili band</w>
" B
victor y.</w>
ation ’s</w>
ex ile</w>
as sur
H it
Bo st
inev it
Th en,</w>
w ed</w>
reha bil
co stly</w>
N ick
hour s,</w>
hon est</w>
5 8</w>
prov en</w>
it ?</w>
insid er</w>
dis cre
mach ines</w>
# q</w>
contin ental</w>
N O
trem end
rel ay</w>
co s
list ening</w>
open ly</w>
fle eing</w>
cost s.</w>
$ 10</w>
difficul ties</w>
R A
cl ing</w>
pric ed</w>
ist s,</w>
o z
less ly</w>
fin nish</w>
ounc es</w>
“ That</w>
overwhel ming</w>
leng thy</w>
ate ful</w>
M .
Fol lowing</w>
how ever</w>
Depu ty</w>
sco re
remo val</w>
re actor</w>
pe t
l en
al arm</w>
rol ls</w>
counc il
banglades hi</w>
ple ase</w>
jo e</w>
how ard</w>
sh ei
settle ments</w>
answ ered</w>
one- year</w>
fai th
Sh ould</w>
th ur</w>
smart phone</w>
ag e-
c ous
la sted</w>
SN P</w>
our ing</w>
U.S .,</w>
ver y,</w>
conduc ting</w>
ch man</w>
argu es</w>
K ong
board ,</w>
prescrip tion</w>
g ordon</w>
ri pped</w>
c pc</w>
azer bai
aj evo</w>
C C</w>
wan ting</w>
Vide o:</w>
arti ll
Su u</w>
D ol
themsel ves.</w>
th- century</w>
dis gu
com e,</w>
right- wing</w>
overwhel m
profit- taking</w>
moroc co</w>
cle aring</w>
alex ander</w>
Sci ence</w>
b y.</w>
4 ,000</w>
loom ing</w>
clu b.</w>
Ag ain
17 -
gh ans</w>
ation :</w>
cont ains</w>
to day's</w>
ed es</w>
3 9
lob by
l ity</w>
gra b</w>
7 00</w>
200 5,</w>
se aled</w>
pat rick</w>
dis close</w>
prov oc
human s</w>
Amaz on</w>
that ."</w>
sid e
st amp</w>
pres ents</w>
approxim ately</w>
Se attle</w>
ball ,</w>
inspec tion</w>
legend ary</w>
incredi ble</w>
o ch
cred ited</w>
recommend ations</w>
consu late</w>
M erc
cou ple
lif ts</w>
exerc ises</w>
en suring</w>
diseas es</w>
engine er</w>
Wat son</w>
hear ings</w>
or i</w>
con tested</w>
Ser ies</w>
ur u
respec ted</w>
£ 1.
su es</w>
found ing</w>
pric es.</w>
ke ys</w>
bro ker</w>
mainten ance</w>
Pri v
pro to
a ,”</w>
P ur
1 3-
He at</w>
un a</w>
fugi tive</w>
car ,</w>
oppos ing</w>
to day’s</w>
preven tion</w>
Reuter s.</w>
slo ven
liv es.</w>
less on</w>
b ited</w>
he ight</w>
di visions</w>
em ail
" W
rac ist</w>
he 'd</w>
hom er</w>
dre am
bo ge
Coun ty,</w>
li sting</w>
categ or
Car los</w>
tab le,</w>
be ars</w>
mete or
chec ked</w>
stat e’s</w>
g ab
Capit ol</w>
nepal i</w>
Mu barak</w>
$ 5</w>
hol ocaust</w>
fun ny</w>
bod y,</w>
bure auc
add af
-r ange</w>
join tly</w>
mis sion.</w>
ide al</w>
earth qu
Michi g
te ach</w>
rescu ers</w>
##- ###</w>
consist ently</w>
di amond</w>
jo seph</w>
end angered</w>
50 ,</w>
th um
sol ic
remin der</w>
contr ast,</w>
al ised</w>
C z
regi on,</w>
hol der</w>
endors ement</w>
dis miss
R ay</w>
sl aying</w>
ic onic</w>
Mon t
FD A</w>
vi e</w>
tre ating</w>
sh ru
se attle</w>
# \/
life time</w>
bann ing</w>
Un like</w>
t ation</w>
patter n</w>
re leg
B ou
ent ers</w>
are t</w>
J i
C av
in er</w>
bus es</w>
barri er</w>
5 9</w>
rest ored</w>
counter -
astronau ts</w>
sor ry</w>
che f</w>
avo ided</w>
agre eing</w>
D on</w>
res idence</w>
cre am</w>
bri bery</w>
lot tery</w>
P y
hi p</w>
incinn ati</w>
ev angel
dep th</w>
4 8
seas on-
lin king</w>
wal es</w>
am ond
nation .</w>
k ham</w>
R un
ici ary</w>
B ak
deb t.</w>
Z ealand</w>
We ek
priv ately</w>
L es
floo ded</w>
at op</w>
control .</w>
un le
Holl y
M O
Ex change</w>
extremis t</w>
B o</w>
ach .</w>
v ani
gh ter</w>
discipl ine</w>
under go</w>
pro tested</w>
non profit</w>
vo ters.</w>
l akers</w>
is lam</w>
w inter
L .
up date</w>
n esses</w>
haw ks</w>
sti r
m ation</w>
rec ently,</w>
divid end</w>
clin ic</w>
men .</w>
land slide</w>
di et</w>
im pe
a w</w>
um ul
de utsche</w>
F ed
u re
it self.</w>
ind uc
" At</w>
wrong .</w>
el eg
decad es.</w>
possi ble
disarm ament</w>
ath edr
fit ness</w>
ast y</w>
###. ##-###</w>
shop pers</w>
Re ad</w>
out door</w>
t ,”</w>
old -
Augu st,</w>
tow er</w>
i a.</w>
em ents.</w>
dis placed</w>
t ears</w>
US ,</w>
mur ders</w>
regre t</w>
n ers,</w>
critici zes</w>
commodi ties</w>
- in</w>
crimin als</w>
dis count</w>
imag in
Rob in</w>
over sight</w>
anonym ity</w>
ag as
s op
McC ain</w>
depres sion</w>
de v</w>
In formation</w>
hus band
de an</w>
tri al.</w>
found .</w>
as sum
pit ched</w>
om o</w>
bomb ers</w>
or thodox</w>
bel grade</w>
man ner</w>
i on,</w>
fl ash</w>
h ing
fur nit
L ak
sex u
tim e
se al</w>
ati ve
adju st
Tot tenham</w>
Anton io</w>
pul l
firm ly</w>
is :</w>
L et</w>
E mer
sp ur</w>
jam a
j ack</w>
bu o
ir ut</w>
Spr ing
f ting</w>
accur ate</w>
New castle</w>
D V
-run ning</w>
ta o</w>
per ,</w>
escal ating</w>
aren a</w>
P ack
sem in
s kill
de pend
be aring</w>
R oll
glo be</w>
pul ls</w>
fr ame</w>
view ,</w>
gr ass
bet ter
m ature</w>
issu e,</w>
subsequ ent</w>
rub ber</w>
decad es,</w>
P el
Con n
- ##</w>
us -led</w>
gr as
Do es</w>
we ’ll</w>
ach i</w>
life -
ev ent.</w>
Pan etta</w>
Mar c
bi partisan</w>
s ang</w>
ter ly</w>
R io</w>
th ouse</w>
Ro b</w>
carri ers</w>
Per si
emb le</w>
hy po
Ni k
F our
Uta h</w>
celebr ates</w>
shr in
herit age</w>
“ As</w>
Maj or</w>
M ay.</w>
C are
chil ean</w>
ti se</w>
enrich ment</w>
ban k,</w>
Photo graph
guid ance</w>
umb ai</w>
* *
voc al</w>
mat ter.</w>
b iting</w>
Clar k</w>
batt led</w>
O ,</w>
stra ined</w>
gall ery</w>
Mer kel</w>
anti trust</w>
sim pl
ignor e</w>
an thro
he ated</w>
co inc
Petr ae
e br
ac tion,</w>
9 /
lobb ying</w>
P a
w n</w>
sh ine</w>
afterno on,</w>
a ;</w>
Metro politan</w>
lef t.</w>
impl ic
ton ’s</w>
care .</w>
cu r</w>
journ alist
dri ves</w>
S how</w>
Russi a,</w>
second -largest</w>
emb ar
bl ames</w>
Lond on
impres sion</w>
doc tor
y ang
ko z
t ender</w>
im ported</w>
ber ,</w>
aught ers</w>
alger ian</w>
They ’re</w>
us ion
mar t
K im
N A
landsc ape</w>
up held</w>
publ ish</w>
si ve,</w>
su m</w>
reli able</w>
r s.</w>
im per
hom etown</w>
sun ni</w>
$ 10
F ashi
u ae</w>
con trad
volunte er</w>
pir acy</w>
declar ing</w>
" All</w>
effici ency</w>
incredi bly</w>
kaz akhstan</w>
ali ans</w>
Satur day's</w>
she et</w>
green house</w>
Jun e.</w>
el abor
Miss issippi</w>
bund es
t all</w>
simp son</w>
p s.</w>
ma ur
x es</w>
strength ening</w>
four- day</w>
aspec ts</w>
fl ash
fav ored</w>
h at</w>
did .</w>
presti gious</w>
G ill
Bu ild
in tri
com ic</w>
chen ey</w>
min ds</w>
bal i</w>
ab s</w>
anton io</w>
ten egr
Apr il.</w>
ri ft</w>
migr ation</w>
an th
ather ine</w>
(R -
a \/
l as</w>
ball .</w>
f red</w>
jum ping</w>
command ers</w>
ex act</w>
D y
Ro y</w>
w are
Mor si</w>
mo sle
choo sing</w>
level .</w>
vir tual</w>
reser v
onzal ez</w>
particip ating</w>
hel p.</w>
Bure au</w>
bon uses</w>
advoc ate</w>
la b</w>
debr is</w>
fisher men</w>
wan g</w>
sophistic ated</w>
releas ing</w>
Brad ley</w>
rec eption</w>
j ar
F red
yp e</w>
sar ajevo</w>
i p
R id
Di vision</w>
per mit</w>
kil o
in ’s</w>
A -
tt i</w>
Bry ant</w>
O ut</w>
eng agement</w>
witn essed</w>
S C
A venue</w>
Ru pert</w>
run .</w>
gu y
colum n</w>
fe eding</w>
Israel 's</w>
it e,</w>
t ally</w>
solu tions</w>
shi eld</w>
prac tical</w>
mer t</w>
care er,</w>
sl alom</w>
ver th
der by</w>
Braz ilian</w>
ol es</w>
consci ous</w>
G lo
kidn apped</w>
CNN 's</w>
u.s. -led</w>
sc ope</w>
retur n
hon est
N early</w>
v end
experi ences</w>
O f
improv ements</w>
provid ers</w>
e ful
M ann
Hun t</w>
Cred it</w>
C anc
, 500</w>
n old</w>
fres h
M ess
recomm end</w>
I .</w>
cred itors</w>
14 -
( AP</w>
pharmaceu tical</w>
ES P
de ton
en cies</w>
re war
re now
trad em
wh o's</w>
tor ch</w>
blo gg
consorti um</w>
competi tors</w>
### m</w>
th ings.</w>
Tha il
D ani
ris ky</w>
comp ly</w>
lin es,</w>
artill ery</w>
A ustri
unve ils</w>
che z</w>
t ling</w>
servic es,</w>
restric ted</w>
Ke ith</w>
B ond</w>
le y.</w>
feel ings</w>
world -
un il
g limp
sub mit</w>
Tr ust</w>
bod y.</w>
Commission er</w>
Col leg
hom e-
ro eder</w>
fi re.</w>
friend ship</w>
e ez
no ,</w>
f um
mon opol
cour se.</w>
cir cle</w>
bat tery</w>
att ached</w>
ace h</w>
Lincol n</w>
pro- democracy</w>
di an</w>
d ancing</w>
mak e
are r</w>
z oo</w>
fur t</w>
accid ent
Gab ri
R ud
16 -
nomin e
Ju an</w>
uru gu
insist ing</w>
gr u
shoot out</w>
dis ney</w>
re ig
mu d</w>
nam e.</w>
mer kel</w>
fic tion</w>
Mo ore</w>
L isa</w>
-l in
semi final</w>
ben jamin</w>
trag ic</w>
re al-
chur ches</w>
at ric</w>
incenti ves</w>
dep ends</w>
yester day,</w>
under lying</w>
sovereign ty</w>
plagu ed</w>
w y
air ing</w>
ol d.</w>
hol d
en ever</w>
PG A</w>
fall ,</w>
congres sman</w>
activ ely</w>
memb ers,</w>
for .</w>
Iraq i</w>
B uck
st abbed</w>
ta ji
gu s</w>
de e</w>
shif ting</w>
20 .</w>
w en</w>
res tive</w>
F TS
Ap pe
last- minute</w>
E ag
1. 5</w>
liter ary</w>
pro te
ver sions</w>
sha re,</w>
Bra d</w>
n t</w>
fr ank</w>
er y,</w>
di p</w>
Polic y</w>
F lo
2 -year-old</w>
saf ely</w>
fu eled</w>
progres sive</w>
je ws</w>
Li b</w>
ri o
William s,</w>
re moving</w>
guarante ed</w>
const antly</w>
bot tle</w>
diplom acy</w>
ta p</w>
fl am
P AC
Dec ember.</w>
Argent ina</w>
wa iti</w>
no tably</w>
Ang ela</w>
cir cuit</w>
O h,</w>
r and</w>
deser ve</w>
ator s.</w>
li est</w>
dis sid
dat ab
sen ,</w>
sol ved</w>
mi d</w>
man ned</w>
ar ia</w>
fat ah</w>
ar ming</w>
Boehn er</w>
tro op
fat ally</w>
per -
succ essive</w>
Bar celona</w>
gu ided</w>
earli er,</w>
K ings</w>
liber ia</w>
tu s</w>
hand ing</w>
br ush
team mates</w>
shel ter</w>
D avi
s —
per sons</w>
pr incess</w>
level ,</w>
den ver</w>
W y
( a</w>
w ant
k g</w>
I A
” )</w>
Ne ither</w>
problem s,</w>
epidem ic</w>
de av
slov akia</w>
mil est
hu b</w>
Sy stem
st age,</w>
enthusias m</w>
enough ,</w>
stor y,</w>
decad e,</w>
mus cle</w>
Spur s</w>
Fla .,</w>
Colum bia</w>
ke i</w>
counter parts</w>
conc eded</w>
st age.</w>
spac ec
d r.</w>
at ing,</w>
param il
commod ity</w>
al o</w>
motiv ated</w>
mil d</w>
appreci ate</w>
sp are</w>
ed ?</w>
h is
K ey
dra g</w>
decad e.</w>
lo ves</w>
mun ich</w>
R ay
conver ted</w>
chocol ate</w>
coun sel</w>
aw k
Jap an's</w>
sh elling</w>
Stu di
Fi f
m -
ro ,</w>
li ties</w>
ali e</w>
7 2</w>
thor ough
requi rement</w>
net working</w>
Com m
el ement</w>
dep ending</w>
credi bility</w>
I T</w>
enti ous</w>
unk en</w>
paren ts,</w>
appe ti
vo ters,</w>
reg ain</w>
ins ist</w>
G old</w>
tri al,</w>
a el</w>
wom en’s</w>
FTS E</w>
lean ing</w>
princi ples</w>
Sha res</w>
te ens</w>
S ho
rich est</w>
metho ds</w>
ari el</w>
inten sive</w>
sugges tion</w>
o vic</w>
bri d</w>
Har ris
li ti
D om
trad es</w>
ra ined</w>
wa it
paint ings</w>
k atrina</w>
head lines</w>
box es</w>
autum n</w>
S T
G o</w>
rac ism</w>
friend s,</w>
foo d,</w>
ch 's</w>
care ,</w>
3 -year-old</w>
u vian</w>
’ s,</w>
cr um
Rober ts</w>
P err
out going</w>
fe ver</w>
What 's</w>
Co .</w>
t ance</w>
push es</w>
lob by</w>
i ghts</w>
defin e</w>
1 3.
dis pos
Offic er</w>
Mus lims</w>
Ital y,</w>
supp le
st ole</w>
es h</w>
bish ops</w>
resol u
mo red</w>
t ted</w>
hor ror</w>
per vez</w>
cop per</w>
7 6
nurs ing</w>
de bu
acquit ted</w>
tax i</w>
har mon
mari time</w>
dis cover
tradi tionally</w>
tyco on</w>
pl ant
z .</w>
kno ck
bhut to</w>
We ’re</w>
out -of-
ju ven
comm entary</w>
o s.</w>
N CA
occup ation</w>
Com mon
forth coming</w>
spec tr
s ounded</w>
hop efully</w>
1 st</w>
s er</w>
am or
k remlin</w>
aver t</w>
Or leans</w>
Auth ority</w>
weigh ted</w>
In d
web sites</w>
ici a</w>
hu mili
“ Our</w>
str y</w>
D ak
whe el
cop ies</w>
200 6.</w>
at e-
r ated</w>
st up
par ad
w o
ta g</w>
accoun ted</w>
ine z</w>
trans actions</w>
T rad
Pennsyl vani
Com mons</w>
“ I’ve</w>
hand .</w>
co st-
perc eived</w>
holid ays</w>
ap ps</w>
F O
retre at</w>
gun fire</w>
amate ur</w>
a "</w>
should n't</w>
audi o</w>
Jon es,</w>
assi sts</w>
sur render</w>
gre eted</w>
a -based</w>
ju an</w>
Bar ry</w>
defe ats</w>
proced ure</w>
T ow
futu re,</w>
dec ides</w>
Mal aysi
ent ly.</w>
enc e-
wid e.</w>
weak ened</w>
sam ples</w>
t ape</w>
arti f
amm uni
myster ious</w>
di gn
Spain ,</w>
in cur
Inter nation
m ph
month -old</w>
l is
K id
Invest ors</w>
ist .</w>
ell .</w>
eez za</w>
Str aus
oppos es</w>
it z</w>
home owners</w>
1/ 2</w>
- style</w>
lot te</w>
pric ing</w>
chec king</w>
grad ually</w>
10 .</w>
a ero
Tot al</w>
L I
hun garian</w>
posi t</w>
advoc acy</w>
Dru g</w>
they ’ve</w>
psych ological</w>
proble m,</w>
tion :</w>
CB S
well- known</w>
h il
por ter</w>
flow n</w>
S pi
ai res</w>
you ths</w>
an ic</w>
toge ther
ch ris</w>
t ing.</w>
ch or
Eng land's</w>
Bal timore</w>
W imbledon</w>
Ge orgi
di ego</w>
genu ine</w>
absol ute</w>
Alex and
consul ting</w>
coll ided</w>
Moham ed</w>
Con ven
typ hoon</w>
resul ts.</w>
Sept ember.</w>
refin ery</w>
le aked</w>
Mar ket</w>
st ones</w>
first- half</w>
( Additional</w>
l ing,</w>
im minent</w>
yester day.</w>
hon ors</w>
it y’s</w>
in door</w>
He ath
gre g
L in</w>
n elson</w>
bank s.</w>
C ross</w>
d aughters</w>
arc tic</w>
sha ped</w>
el em
Li ver
Univers ity.</w>
bour se</w>
Nic olas</w>
ment ally</w>
al one.</w>
ir s</w>
00 -
larg e-
amp ed</w>
dis ord
IN G</w>
st adi
seri es.</w>
fid el</w>
cau tion</w>
contro ll
bla sted</w>
aug .</w>
anks giving</w>
2. 5</w>
new ,</w>
high- speed</w>
din ing</w>
ch est</w>
Fi el
afford able</w>
negoti ator</w>
asi a-
rend ered</w>
un ite</w>
10 -year</w>
roman tic</w>
pris on.</w>
condem n</w>
achiev ement</w>
B ey
mon tenegr
hann es
entr ance</w>
war zen
Or ange</w>
x i</w>
Li ve</w>
depu ties</w>
ten ,</w>
car .</w>
ward s.</w>
radi ation</w>
boo ked</w>
Fir st,</w>
rid icul
meth od</w>
C ari
frame work</w>
ativ es,</w>
registr ation</w>
le thal</w>
it -
eas on</w>
don or</w>
J .
mor gan</w>
afterno on.</w>
mo thy</w>
govern ors</w>
loc ate</w>
favor able</w>
ath ers</w>
M ol
subst ance</w>
smoo th</w>
mor tar</w>
V a
G ro
group s.</w>
air y</w>
ve dev</w>
experi ence.</w>
P ap
Lar ry</w>
resour c
indic tment</w>
courtro om</w>
ab out.</w>
H av
Coll ins</w>
defin ition</w>
sch roeder</w>
tour s</w>
min ded</w>
d ut
War ner</w>
t ang
ch y</w>
Ben jamin</w>
inform ation.</w>
dis played</w>
div ide</w>
open -
ing ’s</w>
broad caster</w>
bc -
200 4,</w>
nan dez</w>
istan bul</w>
P .
Febru ary.</w>
Develop ment</w>
reci pi
wood en</w>
hu an</w>
fl at
decisi on,</w>
L ook</w>
K il
rhy th
e v</w>
cle ar.</w>
ab rup
performan ce.</w>
F ord
deb ate,</w>
Ar c
c liff</w>
wholes ale</w>
astr onom
T .</w>
we ir
semi- final</w>
Mon etary</w>
anxi ety</w>
Be au
Some times</w>
B ever
s lower</w>
possi bil
medi a.</w>
Child ren
over turned</w>
ban ker</w>
vill a</w>
struc tural</w>
al ’s</w>
b ands</w>
Jul y,</w>
Bro oks</w>
##- day</w>
skir ts</w>
med ,</w>
sal aries</w>
om ,</w>
egg s</w>
R ap
mus ic,</w>
ab using</w>
g au
gro cer
collec ting</w>
audi ences</w>
thou ght
petro l</w>
elec tions.</w>
Afric a,</w>
pl ain</w>
d u</w>
conserv ation</w>
justic es</w>
U g
ic e,</w>
recei ver</w>
Har ris</w>
Bob by</w>
### th</w>
around .</w>
2 4-
6 4</w>
um a</w>
uc c
succ ess.</w>
st ation
bas que</w>
ta .</w>
es c
dol ph
y ce</w>
ne uro
Again st</w>
emphas is</w>
boom ing</w>
pro visions</w>
I ni
thin k
Gr am
road ,</w>
S po
Air lines</w>
tab lo
school s,</w>
to ss</w>
S ter
second ary</w>
conc essions</w>
offic er,</w>
Elec tr
Isra el,</w>
r ace
Pit tsburgh</w>
angu age</w>
surpris ingly</w>
H .</w>
fl ames</w>
dep end</w>
warzen egg
oper ates</w>
gr ay</w>
euro z
Sci enti
develop ers</w>
pal m</w>
es cor
aff ec
tion ,"</w>
establ ishing</w>
S port</w>
bron ze</w>
H .
ul ing</w>
belong ing</w>
UK .</w>
far ms</w>
phys ic
v ed,</w>
team 's</w>
rel ation</w>
ed ges</w>
n ing,</w>
Cleg g</w>
wal k
us u
people 's</w>
An ne</w>
he ating</w>
flag s</w>
colum n
deplo y</w>
as signed</w>
ak .</w>
cen sus</w>
is e.</w>
be ar
assu med</w>
t "</w>
M oo
Hou se.</w>
hospital .</w>
Sal mond</w>
R ol
im posing</w>
exist ence</w>
K le
pen n
os ama</w>
ord ering</w>
l ess,</w>
sugges tions</w>
C C
Al li
difficul ty</w>
te e
ah madinejad</w>
B all
tight en</w>
ham mad</w>
expl aining</w>
control ling</w>
M L
lo ,</w>
squ are
" P
trou bles</w>
tre al</w>
exam ined</w>
ancou ver</w>
T ayl
Sco ts</w>
tal ented</w>
ro ger</w>
review ing</w>
re patri
fund -
fo ster</w>
re d-
uli ani</w>
secret ary,</w>
battle ground</w>
Tig er</w>
reven ge</w>
fac e,</w>
f old</w>
' The</w>
Fergus on</w>
B ad
w imbledon</w>
profession als</w>
Poli tical</w>
W ell
Pe ace</w>
rhetor ic</w>
gr ass</w>
on es.</w>
gl omer
celebri ties</w>
behavi our</w>
review ed</w>
p oul
Reven ue</w>
6 6</w>
sin king</w>
October .</w>
Ch ang
C airo</w>
##- month</w>
viol ence.</w>
lo op
wauke e</w>
coach ,</w>
wit z</w>
tw ins</w>
mat ch.</w>
sec t</w>
i -b
fer n
syn dro
ho sn
TV ,</w>
impres sed</w>
ser ial</w>
secre ts</w>
sp in
pro vision
schol ar
le :</w>
dir ty</w>
b by</w>
break fast</w>
To kyo</w>
G B</w>
go al.</w>
ud d
ei ght
ang els</w>
Ev ans</w>
3 4
aff ecting</w>
ter :</w>
k is
renow ned</w>
rec re
p ile</w>
marg ins</w>
blu e-
ne gl
n hl</w>
front -run
bod an</w>
Mc L
electr ical</w>
dict ator
Protec tion</w>
citizen ship</w>
M anc
hosn i</w>
fac e-
l ash</w>
import ant
depos its</w>
elimin ated</w>
- era</w>
photogra pher</w>
Net work</w>
Carolin a,</w>
pupil s</w>
p ap
an atol
second- quarter</w>
sleep ing</w>
H M
mus ic
Si x
unexpect edly</w>
oper ational</w>
di ving</w>
f s</w>
respec tivel
bl acks</w>
addres sing</w>
ex ist</w>
Sun ni</w>
sp raw
mem o
Am end
' I</w>
worl ds</w>
ounc ing</w>
mortg ages</w>
m ap
in s.</w>
Angel es,</w>
pay roll</w>
N atur
man eu
convers ations</w>
" To</w>
insur ers</w>
politic s.</w>
con glomer
ad mission</w>
p iz
r ack
bre ad</w>
stat ue</w>
minist erial</w>
Man ager</w>
ce iling</w>
W ayne</w>
whe el</w>
im pover
children 's</w>
war planes</w>
star ter</w>
Ath ens</w>
2 nd</w>
withdraw n</w>
strateg ist</w>
low ered</w>
detec ted</w>
Lat ino</w>
D -
hom ic
bet ting</w>
Mar c</w>
gener als</w>
credi ble</w>
er i</w>
2 :
forwar d.</w>
Heal th
institu tional</w>
capital .</w>
autom o
Cli ppers</w>
A aron</w>
discipl inary</w>
Red kn
vess els</w>
ku waiti</w>
ac t,</w>
w ick
athle te</w>
cra zy</w>
cont acts</w>
Ob vi
val .</w>
you ’ll</w>
b b
ra ided</w>
T ampa</w>
tes y</w>
neighborh oods</w>
in es.</w>
Spain 's</w>
" F
Eng land.</w>
Air port</w>
hu g
Is lam</w>
re building</w>
(D -
Oreg on</w>
an a,</w>
A :</w>
form erly</w>
e able</w>
sur ging</w>
s ”.</w>
lin ,</w>
“ There’s</w>
ear ns</w>
ay s,</w>
10 th</w>
foc uses</w>
Cor p
pu r</w>
c attle</w>
No bel</w>
5 7
che ap
run way</w>
ac e.</w>
tr a</w>
au to
6 2</w>
Mexic o,</w>
tim et
Tues day's</w>
H os
suff ers</w>
pu mp</w>
islam ist</w>
em in
And re</w>
cap ped</w>
Y ahoo</w>
liquid ity</w>
kic king</w>
far m
expres sing</w>
exp elled</w>
Hi bs</w>
Her e's</w>
men u</w>
him self,</w>
recru it
mis conduct</w>
sa ves</w>
our .</w>
au x</w>
Tim es.</w>
ann u
objec t</w>
co- founder</w>
19 50
f inger</w>
Jap an,</w>
E mil
temper ature</w>
telev ised</w>
pray ers</w>
ko v</w>
termin al</w>
19 .
Tr ay
lig a</w>
insu rer</w>
ang olan</w>
N um
bun ch</w>
ra ,</w>
are as.</w>
Bl air</w>
t ney</w>
i a
N u
on ce-
de vil
dri ver
tr um
tic s,</w>
bus h
on el</w>
fi re,</w>
ro ster</w>
den ying</w>
bu ck
S lo
M emor
osc ar</w>
li st.</w>
Aug .</w>
i ang</w>
er s:</w>
Mo d
strongh old</w>
med .</w>
pressu res</w>
Committe e,</w>
- be</w>
f its</w>
arch ae
un employ
imp as
design ated</w>
bl n</w>
roy o</w>
h em
cont emp
d ai
abil ity.</w>
T ,</w>
Europe ’s</w>
oc ese</w>
i re
ab c
bat ting</w>
py ongyang</w>
n korea</w>
ghan a</w>
Swed ish</w>
privil eg
res em
nor mal
form ,</w>
tru ste
un employed</w>
organ ic</w>
15 .
shir ts</w>
What ’s</w>
N one</w>
rati o</w>
hur rican
Russi a's</w>
fo res
dh ist</w>
do om
C o</w>
or leans</w>
territ ories</w>
ra fa
V ladimir</w>
DO N</w>
B .
sub -
s ".</w>
ri ot
n ing.</w>
S tri
Ber lin</w>
po o
r y.</w>
l ack
d aniel</w>
T hi
gener ous</w>
An im
Child ren</w>
“ That’s</w>
volcan o</w>
Tor onto</w>
P etro
II I</w>
inform ation,</w>
meet ing,</w>
e hud</w>
M organ
t a,</w>
Wel sh</w>
Mil itary</w>
y e</w>
lawy er,</w>
fri ght
business men</w>
sec uring</w>
di ed.</w>
B ail
hi kes</w>
el se.</w>
chron ic</w>
a\/ h#n#</w>
Li v
Po st
condol eezza</w>
issu ing</w>
min i
memb ers.</w>
harass ment</w>
spar k</w>
opini ons</w>
compar is
res hu
l oud</w>
ste al</w>
polic y
record .</w>
fam ed</w>
def aul
arti stic</w>
wic kets</w>
LO S</w>
er it
Car ter</w>
low ,</w>
J r
lin es.</w>
- out</w>
io c</w>
hur d
His panic</w>
Ar ts</w>
A dri
W ill
prec ious</w>
cont entious</w>
boli via</w>
Mitch ell</w>
sl ated</w>
say s:</w>
lit t
bro ther,</w>
P in
At lan
inter -
Em b
u .</w>
acc essi
d an
sm all-
out sid
meas uring</w>
integr ity</w>
E arly</w>
that ,"</w>
t all
sou l</w>
Th rough</w>
plac ing</w>
occas ion</w>
im on</w>
L enn
wid e-
nic aragu
avo iding</w>
aud it</w>
Nig eri
hor mon
o ved</w>
l ama</w>
mu ch.</w>
en cl
person ality</w>
had n't</w>
dies el</w>
’ ”</w>
forc es.</w>
club ,</w>
S ony</w>
ro d</w>
ambi tions</w>
re acted</w>
in ating</w>
ben edict</w>
pric es,</w>
p .m.,</w>
m am
bat ter
k tor</w>
T am
arrang ements</w>
un covered</w>
Lad en</w>
investig ation,</w>
car tel</w>
N ight</w>
cro ps</w>
us s</w>
f t,</w>
la v</w>
avo id
strai ght
Fashi on</w>
Mass achuset
de pendent</w>
m af
Secur ities</w>
Griff in</w>
lib yan</w>
ob served</w>
ous ing</w>
height ened</w>
br ink</w>
men 's</w>
acknowled ge</w>
T en</w>
thin k,</w>
Lead er</w>
remin ded</w>
k swag
7 1</w>
Every thing</w>
Br ussels</w>
top ic</w>
bul k</w>
certi fic
Vir gin</w>
q ing</w>
pro portion</w>
is ia</w>
Par ker</w>
s ]</w>
gam e-
Th ous
dre ams</w>
aval anche</w>
B ell</w>
indic ates</w>
Ch ase</w>
z heim
overwhelm ingly</w>
b out
a id
light ning</w>
jun g
tur bul
acc use</w>
NCA A</w>
Che v
uni on
power -
develop er</w>
Al so,</w>
super market</w>
parti ally</w>
E A</w>
pu zz
did ,</w>
Tennes see</w>
C ai
tremend ous</w>
i-b ian</w>
new est</w>
fi ji</w>
nur se</w>
equi pped</w>
( A
hy brid</w>
flow ers</w>
d ha
pu erto</w>
persist ent</w>
p raises</w>
g ap
LON DON</w>
2- 1</w>
2 50</w>
y et,</w>
slo bodan</w>
exc ess</w>
- for-
sen tim
( which</w>
prop ag
impl ications</w>
Nev ada</w>
PA C</w>
th en-
suppor ter</w>
ator .</w>
N ash
shu i-bian</w>
ne d
R ho
ti a</w>
si c</w>
ha ven</w>
fi ed.</w>
war- torn</w>
sm en</w>
dist ant</w>
Law rence</w>
D i</w>
uck er
emp ire</w>
dest ination</w>
W as</w>
H old
u g</w>
a er
ol mert</w>
measu red</w>
am bul
Nad al</w>
’ .</w>
prec is
Emb assy</w>
e str
Stan ford</w>
me ,"</w>
h ills</w>
temp le</w>
su it
back er</w>
repor ters.</w>
sk et
slugg ish</w>
y et.</w>
En d</w>
x vi</w>
corrup t</w>
conf essed</w>
cred enti
Cari b
introduc ing</w>
ic on
ex clusi
hi v</w>
fe b.</w>
7 5
predec ess
iss an</w>
tum bled</w>
bed room</w>
liter ally</w>
Sain ts</w>
all- star</w>
Hist or
-b order</w>
short ages</w>
corpor ations</w>
sl ic
me al</w>
R aj
" C
record ,</w>
commun ity.</w>
K rist
6 ,000</w>
om a</w>
cor ner
You 're</w>
Sen ior</w>
portr ait</w>
be it</w>
occasion ally</w>
6 7</w>
" H
see kers</w>
gi fts</w>
fa ult</w>
ch ick
canc ell
br on</w>
bel t</w>
w ick</w>
real istic</w>
le v
Greec e,</w>
scot tish</w>
b -
arg um
w ings</w>
chap ter</w>
tain ted</w>
renew able</w>
di a</w>
der iv
F I
mov ements</w>
ky i</w>
F red</w>
innov ation</w>
er ror
spr ing
l or
defend ant</w>
gri ev
coordin ator</w>
contrad ic
Freed om</w>
er )</w>
ec o
tren ds</w>
pray er</w>
diabet es</w>
de posit</w>
tt a</w>
approach ing</w>
Be ing</w>
inspec tor</w>
mul tin
x ing</w>
w and
tw o,</w>
substitu te</w>
organis ers</w>
sk ins</w>
oc cur</w>
lead ers,</w>
concer ning</w>
is se</w>
bic y
ac ute</w>
ah med</w>
si sted</w>
feder er</w>
imprison ed</w>
inev itable</w>
McIl roy</w>
Associ ation,</w>
kes pe
am en</w>
Le on</w>
row ,</w>
brok er
How ever</w>
mom ent.</w>
injur y.</w>
diver se</w>
IP O</w>
vis ual</w>
profit able</w>
dead .</w>
: 00</w>
initi atives</w>
cigare tte</w>
D omin
fore ign
even ing,</w>
ation .”</w>
T ar
guarante es</w>
impover ished</w>
eng aging</w>
pro long
j it
commit ments</w>
addres ses</w>
we a
V atican</w>
rad ar</w>
warzenegg er</w>
qu its</w>
Dr ag
volunt ary</w>
fir m,</w>
happ en.</w>
l one</w>
en force</w>
Scot land.</w>
sor ts</w>
e at
200 ,000</w>
would -be</w>
pho enix</w>
Pho enix</w>
w s/
re new</w>
radi o
bay ern</w>
n atu
shif ted</w>
eng ines</w>
confir mation</w>
de portation</w>
w inger</w>
star t-
n az
av en
Th or
per son,</w>
form .</w>
ass an</w>
predic ts</w>
ren tal</w>
gh o
l end
is tics</w>
clim bing</w>
R BS</w>
es e-
down hill</w>
y emeni</w>
contrac tor</w>
bel oved</w>
solid arity</w>
sec tor.</w>
editor ial</w>
deb t,</w>
to il
dis miss</w>
en counter
R C</w>
. j.</w>
well s</w>
situ ation.</w>
su u</w>
Dow ning</w>
year- on-
un usually</w>
dist ingu
cour ses</w>
201 3,</w>
team mate</w>
ch asing</w>
websit e,</w>
eg al</w>
wor d
si ege</w>
Y emen</w>
Hun ter</w>
organiz ing</w>
head line</w>
pol y
gra ft</w>
My anmar</w>
man s</w>
commission ed</w>
weigh ing</w>
ig an</w>
W ells</w>
Brid ge</w>
pro pose</w>
reb ound
attack s.</w>
objec ts</w>
ch at
ne t,</w>
- the-
inspir ation</w>
medi a,</w>
archit ect</w>
WASHINGTO N,</w>
ret ro
Mo sc
D enn
’ ’</w>
lab our</w>
Cab inet</w>
spec t
rec y
pe ter
consider ation</w>
arre st
samp le</w>
sent encing</w>
in a,</w>
gu el</w>
abduc ted</w>
V il
Ru bi
Par k
staff ,</w>
prob ation</w>
kidn apping</w>
Lu is</w>
I ll
ti ble</w>
r ation
possi ble,</w>
a .”</w>
fli es</w>
de mean
P ort</w>
work ers,</w>
l aying</w>
ch at</w>
l ane</w>
l ung</w>
gradu ates</w>
ro ot</w>
i us</w>
under going</w>
no se</w>
ei ther.</w>
Cle m
sol ely</w>
an no
educ ated</w>
aus e,</w>
Liver pool
B is
t ang</w>
tit led</w>
mel t
mul tim
Qu in
supp lier</w>
st ering</w>
em ents,</w>
pan ama</w>
http:// abc
gri m</w>
ep ic</w>
rush ing</w>
gener ations</w>
sa o</w>
s feld</w>
Cor n
bod y
releas e.</w>
e tr
Cali f.</w>
night 's</w>
main tains</w>
hospital ,</w>
comple ting</w>
gi uliani</w>
full- time</w>
appe aling</w>
St ock</w>
sal es,</w>
iss a</w>
w oo
medi um</w>
simul tane
reve aling</w>
acc ord
wor th
un fol
he ’d</w>
Lo th
sp ace
negoti ated</w>
exhi bit</w>
maj or
bl ind
6 8</w>
tri o</w>
k evin</w>
R ice</w>
L ie
Dar k</w>
om ing</w>
inaug ural</w>
1 -year-old</w>
M ack
loo k
tu ition</w>
say ing:</w>
en ron</w>
le ton</w>
l ess.</w>
er .”</w>
one- time</w>
M ain
Counc il,</w>
t t</w>
compar ison</w>
pi vo
b ic</w>
arrang ed</w>
Cu ba</w>
are z</w>
ric s</w>
ultr a-
ret ained</w>
azerbai jan</w>
spokes person</w>
group 's</w>
i ously</w>
ach ment</w>
t wit
kilo grams</w>
br ussels</w>
£ 4
scru tin
l ender</w>
exam ination</w>
di versity</w>
ativ es.</w>
a head.</w>
ra z
wid e,</w>
T a
comm uni
ak e-
Iran .</w>
sm ashed</w>
ke ted</w>
conf usion</w>
projec t,</w>
deal er</w>
chann els</w>
view ing</w>
stud ents,</w>
H und
separ ated</w>
n. ws/
St ock
r us
col or
work ers.</w>
an gr
W ade</w>
" to</w>
do se</w>
reb ounded</w>
plain ti
ris k.</w>
pp y</w>
open ha
with .</w>
sl ash</w>
dis order</w>
Clevel and</w>
ar royo</w>
2 %</w>
gd p</w>
de ported</w>
L ag
li a
16 .
( C
destro ying</w>
Pr inc
Ass embly</w>
hon or
Engl ish
s and</w>
cont ext</w>
connec tions</w>
obes ity</w>
gr ateful</w>
alleg ing</w>
affili ate</w>
Palest inians</w>
justi fy</w>
min nesota</w>
d ust</w>
Tim es,</w>
la p</w>
http://abc n.ws/
1 %</w>
ever .</w>
Te a</w>
' ,</w>
run ,</w>
zem in</w>
Ex per
Contro l</w>
ent y-
ab ul
mon arch
Pat riots</w>
Gr ant</w>
B illy</w>
A ut
Center .</w>
cross -border</w>
An na</w>
' .</w>
proli fer
part y's</w>
compl ain</w>
trans formed</w>
me ga
M om
K an
Frid ay's</w>
Cu ban</w>
P at</w>
M our
experi enc
blow n</w>
nation ,</w>
gener al,</w>
am :</w>
ob s
8 ,000</w>
legislat or</w>
Ty ler</w>
G ran
revi val</w>
hannes burg</w>
expres sion</w>
dr ill</w>
bul let</w>
sum mon
s au
A ward</w>
right s.</w>
land s,</w>
are as,</w>
amp ton</w>
ick y</w>
R al
tent ative</w>
dis astr
pregn ancy</w>
Whit ney</w>
shif ts</w>
L ock
F -
Christ mas
vent us</w>
prec au
poin t
P ul
sett ling</w>
fer r
del hi</w>
Ric h
McDon al
sidel ined</w>
cost s,</w>
Go d
tur k
( “
compli ance</w>
Ath le
ham mer
et on</w>
C ris
G ul
Al most</w>
war ri
Ar sen
G as
sn apped</w>
ca us
B ac
vide o,</w>
and 's</w>
public ,</w>
blu e
ann ually</w>
way s.</w>
that .”</w>
j im</w>
er "</w>
T an
Augu st.</w>
" No</w>
dissid ents</w>
What ever</w>
innov ative</w>
l an</w>
narr ative</w>
n ers.</w>
Santor um,</w>
Por tugal</w>
Dou glas</w>
Ah med</w>
.co. uk
for th</w>
vo w</w>
n aked</w>
investig ator</w>
el iz
Ron ald</w>
ator ial</w>
M rs.</w>
A ren
jin tao</w>
ab ili
weren ’t</w>
enterpris e</w>
sal es.</w>
err ors</w>
" un
“ For</w>
ob struc
ob sc
bott les</w>
disappoin tment</w>
cris is
Ar ti
for gotten</w>
chair man,</w>
Ry der</w>
paramil itary</w>
am bush</w>
i- moon</w>
far .</w>
K ell
z o</w>
commit ting</w>
collabor ation</w>
aff ects</w>
inju res</w>
d an</w>
Mis souri</w>
Barbar a</w>
z stan</w>
y og
deb ate.</w>
dang ers</w>
Hom s</w>
( in</w>
score board</w>
play er,</w>
med iterranean</w>
1 1.</w>
ri fic
indic ating</w>
Bo eing</w>
town .</w>
hand -
C -
ton nes</w>
£ 5
under way</w>
spacec raft</w>
mus icians</w>
hear ts</w>
government al</w>
con front</w>
cat ching</w>
em i
6 9</w>
s wif
M ake</w>
exam ples</w>
desig ners</w>
du l</w>
volum es</w>
sa m</w>
nomin ations</w>
gl ad</w>
for t</w>
sub marine</w>
se eds</w>
kswag en</w>
intri gu
c ement</w>
Ni ght
A k
run off</w>
distribu ted</w>
autom akers</w>
K it
swe et
ham id</w>
elec tions,</w>
co is</w>
ti ,</w>
pun ish</w>
labor atory</w>
hu i</w>
Fi re
poo rest</w>
desper ately</w>
critic ally</w>
aw a</w>
P C</w>
Nas daq</w>
3 %</w>
S or
tight ening</w>
therap y</w>
no ise</w>
disappoin t
r all
ir ,</w>
candid acy</w>
Mo ther
don ate</w>
sh y</w>
b n.</w>
un t
pursu ed</w>
montenegr o</w>
defe ating</w>
vo te
p oured</w>
D el</w>
res ili
Commun ity</w>
lo vely</w>
el 's</w>
Fin ance</w>
Am bass
tor onto</w>
g oo
tw o
v int
M ast
L ,</w>
Card in
kno ck</w>
Theat re</w>
6 3</w>
Ac t,</w>
susp ends</w>
ex pend
## ##-
don ation</w>
G or
or bit</w>
coun ties</w>
Pl an
P ass
2 5-
res ist</w>
phys ically</w>
ig ned</w>
er ,”</w>
n pc</w>
fe ed
Spr ing</w>
Iran ’s</w>
us ions</w>
recru iting</w>
k mt</w>
2- 0</w>
sing apore</w>
milli on-dollar</w>
stead ily</w>
hen ry</w>
half way</w>
experi ment</w>
[ the</w>
Mar k
Le ic
w reck
run ners</w>
stret ched</w>
scot t</w>
Car di
8 )</w>
of ,</w>
iel d</w>
uni form</w>
night m
ic y</w>
experi ence,</w>
bill ,</w>
Th ings</w>
swi ft</w>
decla res</w>
round .</w>
st ered</w>
ch es,</w>
mo b</w>
bi as</w>
Cri tics</w>
dead lock</w>
buy er</w>
Pro test
stre am
produc es</w>
territor ial</w>
high .</w>
epis od
ation "</w>
y o
war d,</w>
um p
indi ans</w>
ic -
ang ,</w>
s mile</w>
cent re-
candid ate,</w>
sec ular</w>
no on</w>
dal ai</w>
educ ation,</w>
condi tions.</w>
Co alition</w>
spac e.</w>
dat a.</w>
di g</w>
intensi fied</w>
barg ain</w>
no where</w>
T op
Iow a,</w>
sp ends</w>
t aylor</w>
aero space</w>
R ow
sett lers</w>
P il
over see</w>
govern ance</w>
en g</w>
doc k</w>
# :##</w>
fall out</w>
c ult</w>
ac les</w>
taxpay er</w>
scenari o</w>
pit ching</w>
le ather</w>
ti betan</w>
Mo tor
bur g,</w>
Marg aret</w>
prec i
Jac ob
subjec ts</w>
18 th</w>
“ He’s</w>
r as
politic s,</w>
hug ely</w>
en tic
Cu b
pro ving</w>
contrac tors</w>
survi ving</w>
a z</w>
th res
o b</w>
happen ed.</w>
Par ty,</w>
B au
pric e.</w>
je an-
Hun ts
z z</w>
mo de
compon ent</w>
candid at
Virgini a,</w>
V an
Memor ial</w>
w l</w>
f ence</w>
cigare tt
Congres s,</w>
loc ker</w>
condi tion
inter pret
be irut</w>
n ado</w>
an other.</w>
car pet</w>
ti pped</w>
ment ary</w>
igh t,</w>
Be at
sec tor,</w>
incenti ve</w>
eg g</w>
Holl an
200 5.</w>
rum sfeld</w>
trad er</w>
clean ing</w>
ast on
foot -
ed ;</w>
ari ties</w>
accep ts</w>
primar ies</w>
ol ph</w>
G .</w>
s ed.</w>
resum es</w>
Jul y.</w>
us ,"</w>
pris ons</w>
bran ches</w>
ap ology</w>
M E
“ People</w>
sidel ines</w>
separati sts</w>
ox y
bah rain</w>
w ishes</w>
peri od
depart ments</w>
Arab ia</w>
r ical</w>
transparen cy</w>
rat es.</w>
confer ence.</w>
br anded</w>
Face book,</w>
rout inely</w>
out lined</w>
hol m</w>
ent e</w>
H il
Chris tie</w>
tion ary</w>
19 3
deser ves</w>
I D</w>
B es
liqu id</w>
ment ’s</w>
fern ando</w>
er ie</w>
Investig ators</w>
ok lahoma</w>
frank furt</w>
crush ed</w>
stri k
Kenne d
A B
repe al</w>
lau re
head er</w>
arti cles</w>
avi v</w>
Benghaz i</w>
/ Getty</w>
ity .”</w>
Mus lim
Ac ti
was .</w>
public ity</w>
nurs es</w>
fo ren
With in</w>
school s.</w>
fail ures</w>
Jan e</w>
fil m.</w>
enni al</w>
convinc ing</w>
comp elling</w>
W ould</w>
il leg
Ser ge
Guardi an</w>
st aging</w>
" T
Rober t
Fer din
la in</w>
u a</w>
N a
ation ,”</w>
G at
imm une</w>
great ly</w>
canc er.</w>
le m</w>
deliber ately</w>
embarrass ing</w>
No thing</w>
mand atory</w>
Westmin ster</w>
Sandus k
De ath</w>
B ren
sum mary</w>
pri ests</w>
phr ase</w>
di um</w>
vo ys</w>
star t.</w>
rul es.</w>
in mate</w>
t z
des k</w>
brief ing</w>
-l anguage</w>
resp ir
friend s.</w>
fri ed</w>
e '</w>
consult ation</w>
ling ering</w>
instr um
W al-
no d</w>
child ,</w>
with ,</w>
pi an
lik eli
Campaig n</w>
ali ban
Dav id
al aska</w>
Val ent
Rober to</w>
Let 's</w>
ut es</w>
Cu stom
Australi a,</w>
he t</w>
fem in
barri ers</w>
F R
dum ped</w>
Thous ands</w>
Ear th
spokes man,</w>
7 7
so on.</w>
post al</w>
es ome</w>
de -
O .
Jeff rey</w>
A ud
tim e,"</w>
stun ned</w>
hor n</w>
ex port
defin i
gov t</w>
T odd</w>
cred its</w>
Y ah
premi ership</w>
serv ants</w>
je an</w>
ro s</w>
pois oning</w>
Z ucker
No body</w>
ten ure</w>
e ine</w>
immun ity</w>
dr um
wond ering</w>
far- right</w>
char t</w>
sion s.</w>
ag ger
Saf ety</w>
su re,</w>
dead liest</w>
d er,</w>
unanim ously</w>
autom atically</w>
B R
t ext
in qui
unve il</w>
mic hi
dis per
disrup t</w>
P ir
rel ating</w>
un ting</w>
trav elling</w>
p ino</w>
Vide o</w>
tic ism</w>
on es,</w>
adop tion</w>
Jubil ee</w>
run ner
cow boys</w>
committe e,</w>
W H
pilgri ms</w>
inst ant</w>
poul try</w>
suppli ers</w>
pl o</w>
commun ity,</w>
$1 ,
clu es</w>
sac rific
air liner</w>
le wis</w>
W right</w>
bul l</w>
large- scale</w>
che er
trac ked</w>
fire works</w>
on i
le ast,</w>
S c
tanz anian</w>
K ind
sus pen
ou st</w>
around ,</w>
Cz ech</w>
C um
th ood</w>
si ve.</w>
car ter</w>
F eli
stres ses</w>
photogra ph</w>
motor cycle</w>
dat a,</w>
sail ors</w>
on so</w>
copy right</w>
book s,</w>
year-on- year</w>
succe eded</w>
flag ship</w>
sharehol der
par agu
el e</w>
and a
T ax</w>
asia- pacific</w>
Gard en</w>
attribu ted</w>
W igg
' s,</w>
so y
S g
t ampa</w>
film maker</w>
Commer ce</w>
we t</w>
Mar s</w>
# st</w>
bri an</w>
organ ised</w>
fir st.</w>
— and</w>
c us
over seas
meaning ful</w>
group ’s</w>
liter ature</w>
ammuni tion</w>
ship ments</w>
Alp ha
human ity</w>
Pri ze</w>
n '
marri age,</w>
hun gry</w>
ambass ad
In tellig
per uvian</w>
lim iting</w>
d pp</w>
Col in</w>
forc e.</w>
anonym ous</w>
Lop ez</w>
retali ation</w>
rat e,</w>
ma id
cruc i
strate gies</w>
Vi ol
spons or</w>
e ast
comple x
bu b
M asters</w>
Hist ory</w>
wrec k</w>
enc er</w>
p ure</w>
S ac
centur y,</w>
bet ter,</w>
In sur
mar tial</w>
expend it
li ght.</w>
in fring
kyrgy zstan</w>
elem entary</w>
boy friend</w>
t ell
re start</w>
Pr ice</w>
Li fe
Du b
alu min
sil vio</w>
Wal- Mar
l on
deli vers</w>
clo c
tic s.</w>
r ist</w>
per son.</w>
mosle m</w>
P ie
ex iled</w>
per ed</w>
mi gh
conclud e</w>
um acher</w>
Britain .</w>
interview ,</w>
dismiss al</w>
Fred die</w>
Americ ans,</w>
oil -rich</w>
inspec tions</w>
figu red</w>
even ing.</w>
Moun t</w>
bl aming</w>
£ 6
Whit e
1- 0</w>
S hor
S U
199 9</w>
re p.</w>
evacu ate</w>
p ine</w>
middle- class</w>
don e,</w>
stand ings</w>
un acceptable</w>
mour ning</w>
glimp se</w>
satis faction</w>
he 'll</w>
du o</w>
on y
ED T</w>
blo om
Oc ean</w>
su red</w>
pe ers</w>
m )</w>
fare well</w>
vi br
re hear
Unfortun ately,</w>
S ant
viol ence,</w>
che ese</w>
I S</w>
pe ts</w>
con cl
obser ver</w>
c y.</w>
bi ological</w>
K han</w>
marri age.</w>
jun c
iz es</w>
appoin t
amer ic
" One</w>
michi gan</w>
flo ating</w>
bur ns</w>
israel i-
M ets</w>
b ounce</w>
asi ve</w>
swit ched</w>
furnit ure</w>
for ,</w>
Californi a.</w>
trag ed
equi ties</w>
suff er
scand als</w>
neighbour ing</w>
twee ted</w>
expl oring</w>
resum ption</w>
it self,</w>
bos ses</w>
Raf ael</w>
" very</w>
Ging rich,</w>
under stands</w>
sm all,</w>
ing ;</w>
abil ity,</w>
A my</w>
mu ch
arre ll</w>
Cam p</w>
ad a,</w>
percep tion</w>
fres hman</w>
al ter</w>
Mon ey
sc ep
har ry</w>
as e,</w>
al "</w>
fun n
ch ain
assass in
O ne
I dol
no table</w>
Fam il
E p
part y’s</w>
ist s.</w>
z ones</w>
ple ad</w>
E aster</w>
guatem ala</w>
spar king</w>
den ,</w>
sti ll
detec tives</w>
To yota</w>
200 1,</w>
bur gl
spac e,</w>
ong -
er s,"</w>
acc umul
jo ke</w>
N ancy</w>
“ She</w>
them ."</w>
t ying</w>
suppor t,</w>
min al</w>
Viet nam</w>
li van</w>
ass i</w>
anx ious</w>
C ould</w>
el o
co ali
aff air
Ang els</w>
AT &
min u
HO TO
roc ket
pun ish
fic ations</w>
T ou
M ood
v ent</w>
objec tions</w>
19 0
mem o</w>
L L
####- ####</w>
bl ank
Wal ter</w>
us a</w>
floo d
Lond on's</w>
Te h
Phil adelphi
op ted</w>
SE C</w>
th ak
wor rying</w>
in appropriate</w>
Col e</w>
kh ail</w>
kid ney</w>
K enny</w>
e- m
produc ts.</w>
clin ch</w>
N )</w>
ul es</w>
skep tical</w>
am y</w>
por no
as y</w>
W ater
tradem ark</w>
min d.</w>
gam ing</w>
dynam ic</w>
blood shed</w>
Angel es.</w>
40 ,000</w>
second ,</w>
proce ed</w>
mar ry</w>
exam ining</w>
bi zar
bat ch</w>
hard line</w>
Invest ment</w>
w ers</w>
sw ap</w>
ent ’s</w>
M et</w>
hom es.</w>
ha fi</w>
bri g
ramp age</w>
ro m
bl in</w>
Os ama</w>
E qu
h owever
precis ely</w>
pione er</w>
ch ad</w>
V illa</w>
nar co
for ward
L t
pri z
al ,"</w>
fam ously</w>
bud gets</w>
wis e,</w>
hai tian</w>
cont ender</w>
acc ess
ligh ting</w>
er- than-expected</w>
K aren</w>
30 .</w>
r ings</w>
G .
it e.</w>
##- hour</w>
them ,"</w>
mat ching</w>
# nd</w>
z aire</w>
turno ver</w>
sh attered</w>
sa ,</w>
ov an</w>
comed ian</w>
nomin ees</w>
en to</w>
contribu ting</w>
christ opher</w>
affili ated</w>
Laur a</w>
kil led.</w>
198 0s</w>
rank ings</w>
it ated</w>
.com )</w>
over shad
to y</w>
pre mis
ban k.</w>
ad ol
id ers</w>
fl our
sli d</w>
occasion al</w>
expres ses</w>
eliz abeth</w>
Ar ound</w>
v s</w>
through .</w>
thak sin</w>
tal ity</w>
law su
ag ged</w>
Lou is
http:// www.
hondur as</w>
$ 5.
a es
di men
cle ar,</w>
be tr
rejec ting</w>
pris e</w>
gang s</w>
en cia</w>
N elson</w>
an mar
mil ler</w>
in comes</w>
colum bia</w>
bu ster</w>
agas car</w>
19 th</w>
pass port</w>
b s,</w>
Jes us</w>
F uk
al one,</w>
D aw
surve ys</w>
sp ire</w>
trans form</w>
bet ter-
bank ’s</w>
ag ging</w>
comm u
acceler ate</w>
an o
Glas g
cl am
Ambass ador</w>
worsen ing</w>
prof ess
bu zz
cycl one</w>
im a</w>
refu ge</w>
re actors</w>
den i
" With</w>
m ess</w>
New s)</w>
attack s,</w>
Greec e's</w>
poc ket</w>
pleas ure</w>
mun d</w>
di pped</w>
Ann an</w>
condol ences</w>
s k</w>
real ise</w>
rid ers</w>
inaugur ation</w>
ec lip
kill ers</w>
financi ally</w>
ever ,</w>
endor se</w>
" )</w>
si ght
shoc king</w>
projec t.</w>
bor row</w>
air plane</w>
s nap</w>
performan ce,</w>
Enter tain
- free</w>
our ces</w>
bra him</w>
a hu
me ."</w>
incid ent.</w>
plan s.</w>
mad e.</w>
loo m</w>
sn u
har sh
Pak istan,</w>
Mc N
rid er</w>
rat e.</w>
on ,"</w>
dis par
avail able.</w>
six- month</w>
rac ed</w>
gall on</w>
b read
Con cer
sha w</w>
un -
th row
fantas y</w>
sp ree</w>
mal awi</w>
Mor ris
Aberde en</w>
ve ,"</w>
re opened</w>
p ouring</w>
board ing</w>
Re ad
Ma x</w>
- born</w>
domin ican</w>
disrup ted</w>
anatol ia</w>
differ ent.</w>
ill .</w>
on line.</w>
build ing,</w>
7 3</w>
though t,</w>
star t,</w>
ity ,”</w>
del icate</w>
me als</w>
back ers</w>
Canc er</w>
hind u</w>
son y</w>
trans plant</w>
chair s</w>
weigh s</w>
ud ing</w>
reti ring</w>
enni um</w>
spend ing.</w>
al e,</w>
L t.</w>
$ 20</w>
Lu ke</w>
E M
11 th</w>
ur i
air craf
mic hel
long -running</w>
P ac
f ans,</w>
K az
jur is
excep tion</w>
L ank
Franc e's</w>
si ble</w>
al beit</w>
cot ton</w>
- making</w>
let 's</w>
speech ,</w>
meet ing.</w>
mechan ism</w>
y ant</w>
her oes</w>
Franc e.</w>
7 8
predic table</w>
la vis
in tel</w>
emb our
ans '</w>
tru sted</w>
rec ap
Con tin
tion ."</w>
kni fe</w>
Re agan</w>
stom ach</w>
si ung</w>
en za</w>
L en
ff ed</w>
Priv ate</w>
00 m</w>
contrac ted</w>
attack ers</w>
ou ted</w>
e w
Ne ver</w>
foreclo sure</w>
ber th</w>
y et
gu l</w>
produc ts,</w>
ch al
E R</w>
tab lets</w>
g ros
em e</w>
H as
Gal axy</w>
B order</w>
critici zing</w>
aspec t</w>
R at
For mul
4 4
th en.</w>
vi gil
sk ill</w>
respec tive</w>
l ur
dr c</w>
T ech</w>
A T</w>
s ley</w>
offici al,</w>
day :</w>
R and
Projec t</w>
Lib or</w>
ly n</w>
techni que</w>
sha ke
p ts</w>
Ukra ine</w>
cauc us</w>
As sist
di versi
ag grav
199 0s</w>
trans fer
res on
out skirts</w>
incid ent,</w>
P C
Ash ley</w>
fre e
far ming</w>
heal th-
flow ing</w>
J az
Sal es</w>
event s.</w>
Tray von</w>
mer ,</w>
y land</w>
theat re</w>
id ge</w>
Cha p
6 1</w>
SP L</w>
Du chess</w>
7 4</w>
wh enever</w>
schem es</w>
propor tion
fil tr
#. #-
ma c</w>
fin al.</w>
conf isc
aggres sively</w>
S under
strong ,</w>
S port
ster e
scen e.</w>
entreprene urs</w>
anth ra
bl ues</w>
A M</w>
wi fe
should n’t</w>
monopol y</w>
athedr al</w>
ar o</w>
W a
S even</w>
Mar ket
contam inated</w>
Tig ers</w>
F res
Let ’s</w>
v and
stic king</w>
ol ese</w>
exha u
d amp
cre ator</w>
rou ge</w>
children ’s</w>
197 0s</w>
Y em
shei kh</w>
ch im
tw ist</w>
Sar koz
ai rb
Pol and</w>
Fla .</w>
prin ted</w>
dum ping</w>
W ho
Ob serv
team ’s</w>
over seeing</w>
canc er,</w>
appeti te</w>
Bank ,</w>
it y-
ic ked</w>
hin ts</w>
c ites</w>
ed it
cau ti
Hol mes</w>
particul ar,</w>
t ing
stra pped</w>
mani f
ignor ing</w>
z o
Cam bridge</w>
ve gas</w>
un ted</w>
d airy</w>
comp are</w>
assa il
L og
sac rif
mar sh
it zer</w>
hel l</w>
anni e</w>
Ch all
charg es,</w>
scri pt</w>
j ah</w>
invest ors.</w>
pur po
ic e.</w>
All- Star</w>
under went</w>
sque eze</w>
vel and</w>
saf er</w>
h ood
af ric
an ie</w>
ud ed</w>
spi ke</w>
nor th-
tr in
Bever ly</w>
ri gh
n at
emb ers</w>
Ox ford</w>
- like</w>
un popular</w>
rec ession.</w>
gest ure</w>
tim e."</w>
le ap
int end</w>
gen e</w>
full -year</w>
bizar re</w>
Par k.</w>
Mid d
tari ffs</w>
p ad
Mic rosof
Fo rest</w>
ri g
calend ar</w>
dig it</w>
cont enders</w>
200 3,</w>
dra fted</w>
b ounced</w>
-lin ked</w>
tr uck
forc e,</w>
R ou
, '"</w>
tu be</w>
inst inc
glass es</w>
D ame</w>
treat ments</w>
purchas ing</w>
j ian</w>
g ul
brea thing</w>
Mor ning</w>
J ar
201 1
re bu
cut s,</w>
centur y.</w>
C athol
12 )</w>
und ec
s man
post .</w>
he m</w>
hi v
administr ator</w>
( B
mi red</w>
bro ok
Y anke
C row
mongol ia</w>
ity "</w>
dec ree</w>
agen ci
ie ties</w>
freez ing</w>
two- time</w>
t an</w>
wi ves</w>
know .</w>
iss ance</w>
centur ies</w>
admit ting</w>
Ne br
Hodg son</w>
l end</w>
agenc y,</w>
tri m
cycl ist</w>
Afric an-
q t
om ar</w>
achiev ing</w>
] ,</w>
00 ,</w>
Al bert</w>
Formul a</w>
ou tri
ox ide</w>
ot t</w>
du stri
deep ening</w>
benef ited</w>
Mod ern</w>
in coming</w>
organiz e</w>
olog y,</w>
every day</w>
trail er</w>
mag istr
accep tance</w>
tit le.</w>
re pri
l ure</w>
Sti ll</w>
Sav ile</w>
surviv or</w>
ques tion.</w>
pick up</w>
S ad
Lab our
ev ic
cor ps</w>
Pal ace</w>
Jam a
prin ts</w>
K om
Inter ior</w>
E li
ran ch</w>
Fern ando</w>
k har
interven e</w>
run ner</w>
re mind</w>
ow ning</w>
ab sur
Her e’s</w>
perspec tive</w>
embr aced</w>
el s.</w>
Resear chers</w>
re vo
establ ish
My anmar
scre ens</w>
oper ations.</w>
defic its</w>
Wi ki
urugu ay</w>
subur bs</w>
ar son</w>
5 8
sc attered</w>
bul lets</w>
12 .</w>
Ma c</w>
secret ly</w>
forwar d,</w>
bul ls</w>
Oper ation</w>
f t.</w>
every where</w>
cle veland</w>
bas tian</w>
Mil an</w>
Al aska</w>
l ashed</w>
gener ating</w>
fel i
con tests</w>
per mits</w>
i vi
five- day</w>
P M
G addaf
aw ait</w>
advis or</w>
Be h
inter fax</w>
eth ical</w>
Sec ond
s no
pro pri
metro politan</w>
fin anced</w>
contemp t</w>
ski pper</w>
sch warzenegger</w>
invent ories</w>
event ual</w>
T IM
Hugh es</w>
Bir mingham</w>
recru it</w>
jo hannesburg</w>
“ So</w>
ow ski</w>
jud iciary</w>
Teh ran
detec tive</w>
G a
stud y.</w>
bir die</w>
Qu es
ques tion,</w>
low .</w>
Dun dee</w>
sid ed</w>
form ul
confron ted</w>
an other,</w>
We ather</w>
HOTO S:</w>
th en
constitu tion
barg aining</w>
hand er</w>
Soci alist</w>
sk ies</w>
pi pe</w>
mo c
bre ast
al berto</w>
ski ing</w>
am in</w>
K yle</w>
un ic
pr ou
people ’s</w>
wid ow</w>
rebel lion</w>
mus ic.</w>
integr ated</w>
e tery</w>
ch ill</w>
NE W
-b ound</w>
e vil</w>
anti- terrorism</w>
Job s</w>
Dun can</w>
w right</w>
memor able</w>
hy dr
cen ter,</w>
20 .
rejec tion</w>
ter ’s</w>
techni ques</w>
pun ished</w>
ju li
inj iang</w>
ari ans</w>
Stat e,</w>
er ;</w>
se e,</w>
il e,</w>
er ad
ver ge</w>
su re.</w>
cr ush</w>
“We ’ve</w>
perio ds</w>
excit ement</w>
dit ch</w>
l acks</w>
Indi a's</w>
co l</w>
17 .
they 'll</w>
21 st</w>
Sing apore</w>
Po int</w>
ad i</w>
Der ek</w>
A gr
uni fication</w>
trans action</w>
5 9
ri vers</w>
oc ks</w>
Y o
sign aled</w>
regim e.</w>
enem ies</w>
M illi
timet able</w>
ship s.</w>
ship s,</w>
Wednes day's</w>
Steven s</w>
H and
two- run</w>
K or
out lets</w>
go al,</w>
ans a</w>
Ad vis
ji had</w>
dr unk</w>
Lou isiana</w>
decre ase</w>
work force</w>
pri orities</w>
Pres s.</w>
d ys
T ol
theat ers</w>
oli ve</w>
influ enced</w>
bi a,</w>
let ’s</w>
employ er</w>
cy cle
T uc
pul sion</w>
hoo d.</w>
ch es.</w>
b oun
’ ,</w>
her e
f ans.</w>
disastr ous</w>
H ai
Car ney</w>
B ach
tack ling</w>
poor ly</w>
z an
treat ment.</w>
boo sts</w>
W ang</w>
H ut
back -to-
rul es,</w>
ric o</w>
n bc</w>
back lash</w>
pro p</w>
on ."</w>
but ton</w>
ang le</w>
pron ounced</w>
build ing.</w>
but ter
S ri</w>
me an,</w>
inv ite</w>
grocer y</w>
e agu
th under
L and</w>
ste am</w>
licen ses</w>
care er-
so ar</w>
j es
t ed
aver aged</w>
A venu
ri ,</w>
rat es,</w>
passion ate</w>
neg lig
g ing
E mir
3 :
to ol
rand om</w>
prolong ed</w>
ec tive</w>
an- born</w>
ri an</w>
ch ore
po et</w>
tor e</w>
t as
stor y
ster dam</w>
Techn ology</w>
Sh an
recomm ends</w>
milest one</w>
F all
sa iling</w>
flexi bility</w>
cor rid
You ’re</w>
di stor
valu ation</w>
enh ancing</w>
bill .</w>
In dustri
ab ly,</w>
Tel ev
O h</w>
Fri ends</w>
techn ological</w>
lif estyle</w>
st er.</w>
au de</w>
6 5
openha gen</w>
juris dic
injec tion</w>
ed itors</w>
7 7</w>
ug ly</w>
bomb ard
Y ester
predec essor</w>
Bor is</w>
under- par</w>
sk in
imple mented</w>
high ,</w>
Span i
## ##-##</w>
ul ent</w>
se c</w>
inste in</w>
Sha kespe
symbol ic</w>
strength ened</w>
emb assi
Soci et
viol ate</w>
tim e-
milli on-
avi an</w>
ad vic
under cover</w>
in ers</w>
ex changed</w>
cut s.</w>
a ”</w>
S ear
John ny</w>
Cardi ff</w>
situ ations</w>
j on
bra ve</w>
Li ve
help ful</w>
f led
break .</w>
ai k
he els</w>
dis pen
program ming</w>
secur ity.</w>
symp athy</w>
surge on</w>
cont ention</w>
Mar sh
we ather
de tain</w>
200 4.</w>
18 .
who ’s</w>
semi- finals</w>
Ho tel
read er</w>
post season</w>
counter fe
Z eal
Pow ell</w>
wi el
lo g</w>
gl ory</w>
Har t
ra h</w>
fre estyle</w>
turn around</w>
subsequ ently</w>
bel eagu
salv age</w>
deser ved</w>
chron ic
block ade</w>
balk an</w>
fr ac
Car l</w>
Bre ivi
ap point</w>
stud ents.</w>
stat u
sou th-
D all
slum ped</w>
per es</w>
nam ing</w>
Oak land</w>
L ei
Fin ally,</w>
ag on
administr ators</w>
C ann
back drop</w>
Yah oo
russi ans</w>
poin ter</w>
O .</w>
off enders</w>
respir atory</w>
fac ili
mid st</w>
sl ashed</w>
li ght,</w>
adv ancing</w>
far mer</w>
do ing.</w>
b n
ar mored</w>
B a
" not</w>
scr at
199 8</w>
sacrif ice</w>
fur ious</w>
discus ses</w>
Swed en</w>
vi able</w>
promp t</w>
ori um</w>
hy per
Venezu el
par ked</w>
mat ter
him a</w>
competi tion.</w>
anthra x</w>
R .
J ean</w>
maf ia</w>
el ess
Natur al</w>
surve yed</w>
rela xed</w>
famili es.</w>
Hund reds</w>
regul ate</w>
he fty</w>
dis appearance</w>
cr unch</w>
ingredi ents</w>
V eter
Aff airs</w>
staff .</w>
emb ro
.co. uk</w>
ni ger</w>
is ian</w>
en ci
confid ential</w>
anti- terror</w>
Indi a’s</w>
T en
S ays</w>
Gir l
loc als</w>
end ured</w>
anim ated</w>
Sach s</w>
Olymp ics.</w>
re strict</w>
Tra ff
recover y.</w>
experim ental</w>
authori ties.</w>
tough est</w>
Photograph :</w>
v ation</w>
i ’s</w>
Re id</w>
over came</w>
ton ight
pro ves</w>
Wat ch
A L</w>
star k</w>
k ’s</w>
encl ave</w>
Con cor
the or
rehabil itation</w>
re tri
en ly</w>
drow ned</w>
cor p
sion s,</w>
le an</w>
fit ting</w>
diseas e,</w>
colon ial</w>
$ 3</w>
K night</w>
tw o.</w>
moder ni
So x</w>
che es
Theat er</w>
Anti -
li st,</w>
1 20</w>
t ad
mit ry</w>
for ge</w>
cauc uses</w>
bankrup t</w>
ne tic</w>
co tt
Reg ul
jum ps</w>
St ation</w>
Cl ick</w>
sho e</w>
ma ver
inter ference</w>
event s,</w>
St adi
reduc tions</w>
cali f.</w>
le tt
artif icial</w>
speech es</w>
requi re
new s,</w>
aver age,</w>
aliz es</w>
Stre et.</w>
in filtr
Represent ative</w>
dis asters</w>
d est</w>
control ,</w>
sup port
rec ep
re ar</w>
ph one.</w>
g us
( CBS</w>
“ These</w>
t ful</w>
for t
desig ns</w>
Islam ists</w>
portr ayed</w>
Qa ed
D ick</w>
un happy</w>
tab les</w>
o il,</w>
long .</w>
concentr ate</w>
long- awaited</w>
Loo king</w>
v or
forc es,</w>
defen sem
Oc e
technolog y,</w>
spraw ling</w>
twe et
sp a</w>
sear ches</w>
a is</w>
Bl ake</w>
new com
implement ing</w>
Com mission,</w>
view .</w>
summon ed</w>
ob li
uni verse</w>
st air
infl ic
f ec
conglomer ate</w>
n ’
ma o
dat e.</w>
P att
fashi oned</w>
L AN
pull out</w>
pres cri
inform al</w>
ad b</w>
S E</w>
C raw
B erg
reci pe</w>
T ran
u ous</w>
bott om
W ork</w>
clin ched</w>
P ep
Moun tain</w>
fortun es</w>
fil ming</w>
ch er,</w>
Sh anghai</w>
C all
hor se
We 've</w>
she er</w>
fel ony</w>
defi ant</w>
Wat er</w>
TV .</w>
Mur phy</w>
smart phones</w>
ham mer</w>
custom ers.</w>
Medic aid</w>
right s,</w>
inst all</w>
compos er</w>
t edly</w>
step hen</w>
reas sure</w>
met res</w>
c ake</w>
as sign
? ’</w>
studi os</w>
buil ds</w>
appl ying</w>
th- seeded</w>
w u</w>
m a,</w>
sist ers</w>
Ser gio</w>
gl ori
pur pos
exper tise</w>
expect ed.</w>
Q atar</w>
kh mer</w>
attorne y,</w>
superi or</w>
tel es
real ised</w>
Cur ren
resour ce</w>
ital ia</w>
back up</w>
hurd les</w>
any thing,</w>
show case</w>
n ud
lie uten
in ho</w>
f lower</w>
Denn is</w>
resol ving</w>
iP hon
clas s.</w>
2000 ,</w>
m umbai</w>
fo ol
at p</w>
To o</w>
T aliban
Je an-
Trans portation</w>
y ers</w>
ak h</w>
und ai</w>
res :</w>
Mar co</w>
schol ars</w>
Tur ner</w>
Jr .,</w>
F en
t ?</w>
involv ed.</w>
T arg
Florid a.</w>
hard est</w>
R ug
M aur
militi as</w>
Ky i</w>
tor tured</w>
divor c
ath lon</w>
inf ant</w>
lithu ania</w>
dis plays</w>
l acked</w>
h int</w>
ban g</w>
gl oria</w>
shrin king</w>
b n,</w>
S mall</w>
Pu erto</w>
tor nado</w>
class ical</w>
sell er</w>
Th ink</w>
ti ghter</w>
ru le.</w>
en os</w>
Sch ul
flow s</w>
dis misses</w>
Sim il
stud ent
in y</w>
fin ish
are d.</w>
air strikes</w>
en deav
Alpha ville</w>
5 5
multin ational</w>
Man ag
D ig
fi ed,</w>
bomb ay</w>
revol t</w>
op t</w>
ari o</w>
shoo ts</w>
n ered</w>
ar is
F ro
Andre a</w>
vis as</w>
uzbe kistan</w>
hop eful
hij acked</w>
loom s</w>
El li
Congres s.</w>
beleagu ered</w>
Camp bell</w>
T A</w>
K al
struc tures</w>
modi fied</w>
por k</w>
p edi
lin ers</w>
diseas e.</w>
contrac ep
al ex</w>
A I
tur b
re 's</w>
ou trag
domin ance</w>
R ory</w>
though .</w>
sloven ia</w>
ri k</w>
f ing</w>
hom es,</w>
char ities</w>
arm strong</w>
stan ley</w>
mer ge</w>
med vedev</w>
B ell
tax es,</w>
b out</w>
skore a</w>
pro m</w>
ill in
cy ber</w>
b ones</w>
tsun am
M en</w>
Leagu e,</w>
H ey
but ter</w>
y i
clou ds</w>
assi sted</w>
jour ne
h d
enh anced</w>
con sol
elabor ate</w>
de pri
achiev ements</w>
gen eva</w>
c y,</w>
war ner</w>
compl aining</w>
Americ ans.</w>
s ed,</w>
comp at
Afric a.</w>
S ent
thir d.</w>
supp lied</w>
br un
u pro
emb argo</w>
dem ol
attend ance</w>
spar ks</w>
business es.</w>
un paid</w>
Cir cuit</w>
simil arly</w>
re act</w>
lin s</w>
amb ers</w>
ti re</w>
restor ing</w>
reli eved</w>
inv it
Iraq ,</w>
lo ads</w>
bacter ia</w>
Hosp ital
propos ing</w>
cinem a</w>
ram ento</w>
likeli hood</w>
assi c</w>
Se att
Inde pend
8 2</w>
ro c</w>
New s,</w>
tak er</w>
am mar</w>
Ch es
9 00</w>
3 rd</w>
## st</w>
sh ale</w>
pu p
lu is</w>
conver t</w>
Ind ustr
present ation</w>
F it
hin ted</w>
good will</w>
Brand on</w>
om an</w>
natur ally</w>
Liby a,</w>
Is land,</w>
indi gen
anch or</w>
ac ies</w>
L is
ow a</w>
paren t
ou ster</w>
tic o</w>
stra w</w>
cl ick</w>
all y-
F air</w>
weak ening</w>
top pled</w>
P ope</w>
stem ming</w>
ly ,"</w>
low ering</w>
fr actu
moham med</w>
arch bishop</w>
SA N</w>
Fuk us
( $
tight ened</w>
z i</w>
way ne</w>
h ash
is ms</w>
conting ent</w>
a ung</w>
vir al</w>
ei th
Dem oc
sho t.</w>
business es,</w>
borrow ers</w>
infec tions</w>
comb ine</w>
broad ly</w>
H ir
az ir</w>
res ur
prostitu tion</w>
ar t,</w>
vice- premier</w>
e h
d in</w>
] .</w>
G lob
scra p</w>
ext inc
Ar med</w>
sic huan</w>
lin k
however .</w>
half time</w>
ha ve,</w>
war k</w>
t ends</w>
experi encing</w>
bor ne</w>
Cour t,</w>
Braz il
telecom s</w>
rever sed</w>
mo vie
inten sity</w>
else where.</w>
cau tioned</w>
har bor</w>
p one</w>
accident ally</w>
G ,</w>
wis dom</w>
particip ated</w>
le af
Mag ic</w>
proce eds</w>
di ocese</w>
be ans</w>
Ch arg
Cel ebr
re in</w>
predic ting</w>
attrac ting</w>
patter ns</w>
los s.</w>
bas e.</w>
dat e,</w>
albu m,</w>
ur ry</w>
y u</w>
un armed</w>
kidn app
hard ware</w>
fa res</w>
coordin ated</w>
w icket</w>
th iev
prolifer ation</w>
w ich
le on
injur ies.</w>
enjo ys</w>
tr ailing</w>
Mon day's</w>
movi e,</w>
e b
c bs</w>
autom obile</w>
sp urs</w>
equ ality</w>
Mo tor</w>
targ et
sc ared</w>
min d,</w>
he bron</w>
car tel
H oo
mu ch,</w>
gri d</w>
cra z
S CO
Min nes
al-Qa ida</w>
S we
No tre</w>
Ad v
sec tions</w>
K am
ut ter</w>
ro le.</w>
performan c
foren sic</w>
cul ar</w>
ten ed</w>
secur ity,</w>
ref er</w>
ed u
Sp ace
Li br
201 4,</w>
gu ins</w>
b yp
b ite</w>
Canad a,</w>
statis tical</w>
si ghts</w>
hi d</w>
expect ation</w>
Uni on,</w>
st abbing</w>
recogn ise</w>
g ur
Ever ton</w>
Co oper</w>
Ber ry</w>
“ All</w>
sub po
shr ine</w>
concentr ation</w>
pr one</w>
import ant,</w>
P ed
7 6</w>
Twit ter.</w>
speci fied</w>
f ati
fin d
au top
. '"</w>
child .</w>
Environ mental</w>
us ."</w>
lo ving</w>
Rob in
Coun try</w>
shi el
Any one</w>
substanti ally</w>
Bet ween</w>
pun ch</w>
Mart in,</w>
D ay,</w>
it em</w>
per petr
identi fication</w>
tax es.</w>
spend ing,</w>
sheri ff</w>
X i</w>
out spoken</w>
dem and
an a
M obile</w>
German y's</w>
or ph
12 th</w>
smoo th
r in
con s</w>
I O
wild fire</w>
famil y's</w>
M ick
w ashed</w>
Sg t.</w>
Chic ago,</w>
#\/ #</w>
new s.</w>
at t</w>
Photo :</w>
ey ed</w>
Thurs day's</w>
wom en
season al</w>
enti ve</w>
ach ers</w>
themsel ves,</w>
play er.</w>
mus ician</w>
migh ty</w>
er a,</w>
bom bed</w>
Niger ia</w>
Republic ans,</w>
restrain t</w>
common ly</w>
charg e.</w>
syndro me</w>
ol o</w>
cur y</w>
check point</w>
be y</w>
ab ao</w>
De an</w>
po e
Leagu e.</w>
9 11</w>
new castle</w>
st airs</w>
ha ,</w>
gym nas
lead ers.</w>
go d</w>
condi tions,</w>
“ At</w>
foo d.</w>
compe t
T err
3. 5</w>
bundes liga</w>
Re port
7 8</w>
wreck age</w>
s ati
guit ar</w>
B anks</w>
z 's</w>
it er</w>
expl ic
en s.</w>
to ys</w>
appl au
run -up</w>
reser ved</w>
rememb ers</w>
pat ch</w>
ir rit
comple tion</w>
Al zheim
por n</w>
no is
We ’ve</w>
v owing</w>
separ ation</w>
brief ed</w>
A x
instr uments</w>
effec t.</w>
compon ents</w>
H as</w>
y un
si bl
Mad ison</w>
sin o-
roc ky</w>
har ds</w>
can ,</w>
tee th</w>
Sh ad
p ants</w>
excep tional</w>
b unk
M e</w>
Ac tion</w>
stre et
justi fied</w>
high-r anking</w>
confer ence,</w>
ot a,</w>
chang ed.</w>
let t</w>
first- ever</w>
w re
min ton</w>
Redkn app</w>
Twit ter,</w>
pol ar</w>
ph one,</w>
line backer</w>
canc els</w>
sha re.</w>
arrang ement</w>
8 8</w>
t abl
no te
igg est</w>
fil med</w>
bal tic</w>
ve ."</w>
si e</w>
qu ez</w>
drug -
apologi zed</w>
ever -
Ge or
11 :
spe eding</w>
car s,</w>
popul ated</w>
dead ,</w>
pati ence</w>
ous ness</w>
ori ent
ac ros
P S
x injiang</w>
6 ,
wom an.</w>
pr ud
descri ption</w>
ani ,</w>
one- third</w>
exce ed</w>
ex agger
L ane</w>
vi ktor</w>
sk i,</w>
Bri tish
m ali
il ity</w>
ch ’s</w>
" is</w>
es pion
Z e
Y el
-r ate</w>
jud ged</w>
sh ame</w>
man slaughter</w>
law s.</w>
grand mother</w>
3 /
pro state</w>
long -range</w>
be zz
Nor wegian</w>
ord er.</w>
She i
S m
Gar cia</w>
r ,</w>
govern or,</w>
expl or
Ro y
ju ice</w>
ard i</w>
al ity.</w>
Petrae us</w>
4 :
sha king</w>
medic ation</w>
al ."</w>
ad z
p m:</w>
cas es.</w>
Thir d</w>
J ets</w>
Der by</w>
mo o
shi pped</w>
ret ains</w>
P ad
B ack
tu ous</w>
ff er
deleg ate</w>
Swit zer
H az
pit tsburgh</w>
clas s,</w>
fundrais er</w>
U.S. -
A w
sam e.</w>
paul o</w>
fing ers</w>
f -
St aff</w>
super vision</w>
al read
a we
O t
sc u
ri ver
reli ance</w>
fin ale</w>
revol u
night club</w>
min i-
tr uc
" an</w>
ro v</w>
S car
Or lando</w>
tun n
ri g</w>
heal th.</w>
bir dies</w>
Bo s
gun ned</w>
act res
lun ar</w>
T ul
Scienti sts</w>
Philli ps</w>
Bang lades
Al ong</w>
weap on
level s.</w>
assa d</w>
play off
min orities</w>
ay s.</w>
Hill ,</w>
B om
( L
v ing,</w>
g #</w>
n ing
us es.</w>
resul ts,</w>
h ide
N or</w>
tex tile</w>
fer ti
em bezz
broker age</w>
moroc can</w>
M A
in clu
assem bled</w>
argu ably</w>
L i</w>
bri ght
bri bes</w>
Q .</w>
exc use</w>
accessi ble</w>
Liv ing
ven ues</w>
e al</w>
Isra el.</w>
4 0-
s anta</w>
assur ances</w>
Ste war
App le’s</w>
ju ventus</w>
entreprene ur
d wind
cul min
this :</w>
liber ty</w>
franc s</w>
Str at
tru e.</w>
reig ning</w>
long- standing</w>
ac ious</w>
jama ica</w>
hi e</w>
Hond a</w>
earli est</w>
T oul
Fal k
scen e,</w>
os ity</w>
le ap</w>
front-run ner</w>
c on</w>
Auth or
ni val</w>
emp his</w>
br ush</w>
Goog le's</w>
tournam ent.</w>
develop ment.</w>
Lat er</w>
Kar zai</w>
top- seeded</w>
mol do
en ne</w>
Mon tg
sp ate</w>
199 0s,</w>
ep ing</w>
swi m</w>
pled ging</w>
In side</w>
trav els</w>
ji ang
fund s.</w>
196 0s</w>
i owa</w>
aw ful</w>
trans mission</w>
meth od
identi fying</w>
Glen n</w>
s ink</w>
pi e</w>
ther ed</w>
evol ution</w>
b age</w>
vi enna</w>
over turn</w>
Nichol as</w>
swif tly</w>
st en</w>
spectr um</w>
iti es.</w>
ph er
C 's</w>
wi ped</w>
ash .</w>
Spain ’s</w>
De utsche</w>
Con sid
phil anthro
br ad
T .
S ig
K in
A br
ob serve</w>
budget .</w>
Kore a's</w>
pl a
histor ian</w>
Brad y</w>
? '</w>
sli m</w>
50 .</w>
(7 )</w>
f earing</w>
datab ase</w>
UC LA</w>
har a</w>
kar achi</w>
k or
Egyp t,</w>
yach t</w>
ple -
li ons</w>
cul tiv
assum ing</w>
H ann
Every body</w>
B il
T ed</w>
Ir on</w>
restor ation</w>
ner ve</w>
bas ement</w>
thr iller</w>
semin ar</w>
fore ver</w>
$ 4</w>
stop p
educ ation.</w>
cop a</w>
Clar ke</w>
Bah rain</w>
9 )</w>
post pone</w>
disrup tion</w>
Thom son</w>
icon duc
az iz</w>
N ex
teen ag
ber ger</w>
ativ ity</w>
Wor k
? )</w>
si sts</w>
ang ela</w>
guit ar
bec ause,</w>
an c</w>
G as</w>
unfortun ate</w>
th ank
man -
indigen ous</w>
est e
as a</w>
seni ors</w>
fore sts</w>
’ s.</w>
illin ois</w>
episod es</w>
ci vic</w>
tur n,</w>
om on</w>
Ad d</w>
pack ages</w>
min ed</w>
end uring</w>
Sheri ff's</w>
schol ar</w>
T own</w>
alleg ation</w>
Re view</w>
ka oh
School ,</w>
Mat te
201 0
ution ary</w>
t ”</w>
sk el
pro bes</w>
harv est</w>
g em
awk ward</w>
co sting</w>
Fin al</w>
Simp son</w>
Mc Co
G ad
insurg ent</w>
inno c
flexi ble</w>
H all
phi l</w>
fund s,</w>
hi ,</w>
ev ident</w>
medi um-
id i
ed g
bad minton</w>
ati e</w>
ste el
publish ers</w>
York shire</w>
( F
wro te,</w>
repor ts,</w>
re ll</w>
perform ers</w>
fili pino</w>
crim e.</w>
B A</w>
tu ally</w>
sust ain</w>
present ing</w>
har vard</w>
ad minist
9 6</w>
fac e
break down</w>
V I
B an</w>
vint age</w>
vice- president</w>
a wat
Cor ps</w>
imprison ment</w>
Eng land’s</w>
Ar thur</w>
mad agascar</w>
embassi es</w>
vi sts</w>
pivo tal</w>
ograp hi
Le w
HS BC</w>
Asi a,</w>
autonom y</w>
al ”</w>
advent ure</w>
M embers</w>
to d
and re</w>
ac io</w>
cell phone</w>
hand s.</w>
rac ked</w>
spons ors</w>
Grou p
head quarter
detec t</w>
def er
che er</w>
so oner</w>
mis leading</w>
fing er
billion )</w>
V et
igh t.</w>
hit ter</w>
s killed</w>
li ver</w>
vir gin</w>
lay offs</w>
elimin ating</w>
chang es,</w>
St one</w>
medi ate</w>
Ro th
sa uc
r aged</w>
To ky
wid ening</w>
produc tivity</w>
pro min
per mitted</w>
down ward</w>
NH L</w>
L ate</w>
Dev ils</w>
Juli a</w>
Bal d
B ie
e zed</w>
dem ic</w>
ari ous</w>
traffick ers</w>
la .</w>
D own</w>
15 .</w>
trigg ering</w>
shut down</w>
cl ar
Mubar ak
L ords</w>
z ai
invest ors,</w>
defin ing</w>
ab out,</w>
L av
Hos ni</w>
cour tesy</w>
Th anksgiving</w>
Ste el
Feder ation</w>
radio active</w>
kaoh siung</w>
football .</w>
Pro v
Intellig ence</w>
w oo</w>
tic k</w>
re- elected</w>
in spire</w>
cigarett es</w>
Conserv atives</w>
mat ch,</w>
hom em
war ren</w>
sw ir
succ ession</w>
a rest</w>
Pr incess</w>
row .</w>
injur y,</w>
class room</w>
Oli ver</w>
L ang
p essi
for d
12 :
( 5)</w>
br a</w>
neutr al</w>
n ut
ev es</w>
defen se.</w>
Pakistan 's</w>
O S</w>
Colorad o,</w>
tum ble</w>
tou m</w>
er s."</w>
E ight</w>
mat e,</w>
contain er</w>
un comfortable</w>
o ked</w>
Mor oc
1. 2</w>
n ick</w>
be i</w>
a ?</w>
tablo id</w>
oblig ations</w>
commun icate</w>
accoun t.</w>
Mc A
ing )</w>
di ve</w>
au ,</w>
Ro driguez</w>
10 :
ro ber
mo zamb
invent ory</w>
cr ick
5 m</w>
super b</w>
retur n.</w>
cle ars</w>
man sion</w>
Teleg raph
O K</w>
ani ans</w>
Democr ats,</w>
recommend ation</w>
pol i</w>
Mar ines</w>
manag es</w>
ha bit</w>
S l
Har t</w>
y s,</w>
new ly-
compens ate</w>
bes ide</w>
at ely.</w>
C all</w>
v as</w>
rival ry</w>
ag e:</w>
Per son
N. F.
lo ading</w>
famili es,</w>
Frank lin</w>
t us
Tra vel</w>
ul ous</w>
re wards</w>
ra f
protec tive</w>
licen sed</w>
arbitr ation</w>
200 2,</w>
medic are</w>
kil ometer</w>
tour ing</w>
regre ts</w>
l ords</w>
8 :
twee ts</w>
mar s</w>
gg y</w>
M ach
shor t,</w>
se ,"</w>
C able</w>
prospec tive</w>
investig ative</w>
echo ed</w>
U sing</w>
H ills</w>
enc e
un necessary</w>
speci ally</w>
fiel d
Fi eld</w>
00 .</w>
og y</w>
lad ies</w>
il o</w>
hur ting</w>
fi erc
Co st
su itable</w>
Bul l
st le</w>
prof ound</w>
automo tive</w>
ab und
Gi ff
Dav is,</w>
fir m.</w>
YOR K,</w>
Hom eland</w>
sti ff</w>
ma them
k on
fron tier</w>
cardin als</w>
super star</w>
stic ks</w>
prop elled</w>
inaugur ated</w>
credenti als</w>
blow ing</w>
awa its</w>
all ah</w>
st rom</w>
m age</w>
resear ch,</w>
mus h
Ne verth
seiz ure</w>
approach es</w>
Ti mothy</w>
Bern ard</w>
symp ath
duc k</w>
stro kes</w>
gr ounded</w>
char itable</w>
vel y,</w>
st en
form at</w>
comb in
atro cities</w>
Char lotte</w>
H all,</w>
7 :
st on,</w>
re pay</w>
ne ars</w>
fav ors</w>
ef ,</w>
R ome</w>
tr y
fashi on
Dub ai</w>
201 5.</w>
r ans
L ord
twe et</w>
rul ers</w>
chang es.</w>
s atur
peter sburg</w>
Mexic o.</w>
st ine</w>
ap ple</w>
C up.</w>
id ad</w>
Exper ts</w>
thing ,"</w>
bank 's</w>
emo tions</w>
Man uel</w>
extrad ited</w>
sli ps</w>
le ver
ish i</w>
hi jack
est onia</w>
Y ,</w>
Unit ed
cab in</w>
Mus e
year- old,</w>
quarter- finals</w>
m ourn
cur few</w>
201 5</w>
accompl ished</w>
Su z
Ro sen
Pre vi
y ad
ori es,</w>
ger hard</w>
ex porting</w>
an e
5 6
al len</w>
7 ,000</w>
mal aria</w>
S he's</w>
Rac hel</w>
der i
work s.</w>
seg ment</w>
highligh ting</w>
min us</w>
li ability</w>
Fol low</w>
with draws</w>
revel ations</w>
connec ticut</w>
chol era</w>
shoc k
re ally,</w>
obst acles</w>
guard ed</w>
go s</w>
by e</w>
G ros
rob i</w>
knoc king</w>
hour ,</w>
L az
Cro ati
" in</w>
star red</w>
Par is,</w>
jewel ry</w>
sk y,</w>
k a,</w>
andre w</w>
b it.</w>
West ,</w>
fab ric
ex am</w>
erit rea</w>
( $1
work place</w>
nas daq</w>
dec id
nation ally</w>
interest .</w>
anda har</w>
T em
Dre w</w>
part ner,</w>
embr y
Is land
$ 50</w>
influ enza</w>
h ail</w>
atten tion.</w>
G B
pow der</w>
club ’s</w>
fo es</w>
Hol der</w>
ation ”</w>
lead ,</w>
mov e,</w>
dem enti
Sing apo
9 8</w>
8 6</w>
7 ,
Carib bean</w>
Mor si
us es,</w>
tor ren
qu e,</w>
migr ant</w>
impas se</w>
K now
Gir l</w>
me tro</w>
ad s,</w>
ne o-
bern ard</w>
$ 500</w>
nik kei</w>
mo st-
column ist</w>
er ”</w>
cr iter
br ick</w>
sh ells</w>
pot enti
har to</w>
U PI
A ustin</w>
ori es.</w>
mone y-
stuff ed</w>
proto col</w>
on al</w>
arab s</w>
withdraw ing</w>
smugg led</w>
ph illi
Adam s</w>
ini ,</w>
Nation als</w>
Be ach,</w>
mis er
down grade</w>
P lat
Ke ep</w>
C ar</w>
evalu ation</w>
Univers al</w>
o a</w>
jack et</w>
eng ag
Pater no</w>
D I
h ood,</w>
b ust</w>
Conven tion</w>
4 th</w>
th i
laure ate</w>
Illin o
met als</w>
beg inn
outri ght</w>
be ki</w>
agenc y.</w>
other ap
n 's</w>
Ch er
Ab dul
199 7</w>
orig in</w>
in famous</w>
Gam es.</w>
small est</w>
Ch ild</w>
societ y.</w>
r il
benef its.</w>
" While</w>
wor se.</w>
w aving</w>
plan s,</w>
par ole</w>
tle ment</w>
k as
Olymp ics,</w>
A ID
tru th
kin son</w>
budget ,</w>
alle l</w>
C lim
fre e.</w>
R ut
ref res
rain ing</w>
loy alty</w>
Ital y's</w>
Bu y</w>
ch amp</w>
be aches</w>
anti bio
Leban on</w>
low- cost</w>
Presid ential</w>
Emil y</w>
pres ses</w>
list en
R is
8 3</w>
transparen t</w>
tos sed</w>
ish u</w>
convic tions</w>
produc tion,</w>
Bas e
liv es,</w>
ussi a</w>
stimul ate</w>
orchestr a</w>
liv est
heal th,</w>
con qu
comp iled</w>
tax ,</w>
syl vania</w>
rel ying</w>
oper ations,</w>
“ To</w>
conveni ence</w>
campaig ned</w>
cur e</w>
be ts</w>
anti- war</w>
shr ink</w>
ship ment</w>
margin ally</w>
l acking</w>
hi r</w>
Sam ar
Arc tic</w>
wind ow
newspaper .</w>
cen sor
astronau t</w>
Re fer
f ou
G ord
psychi atric</w>
ling ton</w>
d ire</w>
cr acks</w>
[...]
